{
  "version": "1.0",
  "truncation": null,
  "padding": null,
  "added_tokens": [
    {
      "id": 0,
      "content": "<|end_of_text|>",
      "single_word": false,
      "lstrip": false,
      "rstrip": false,
      "normalized": false,
      "special": true
    },
    {
      "id": 1,
      "content": "<|user|>",
      "single_word": false,
      "lstrip": false,
      "rstrip": false,
      "normalized": false,
      "special": true
    },
    {
      "id": 2,
      "content": "<|assistant|>",
      "single_word": false,
      "lstrip": false,
      "rstrip": false,
      "normalized": false,
      "special": true
    },
    {
      "id": 3,
      "content": "<|im_end|>",
      "single_word": false,
      "lstrip": false,
      "rstrip": false,
      "normalized": false,
      "special": true
    }
  ],
  "normalizer": {
    "type": "NFKC"
  },
  "pre_tokenizer": {
    "type": "Sequence",
    "pretokenizers": [
      {
        "type": "Split",
        "pattern": {
          "Regex": "'(?i:[sdmt]|ll|ve|re)|[^\\r\\n\\p{L}\\p{N}]?+\\p{L}+|\\p{N}{1,3}| ?[^\\s\\p{L}\\p{N}]++[\\r\\n]*|\\s*[\\r\\n]|\\s+(?!\\S)|\\s+"
        },
        "behavior": "Isolated",
        "invert": false
      },
      {
        "type": "ByteLevel",
        "add_prefix_space": false,
        "trim_offsets": true,
        "use_regex": false
      }
    ]
  },
  "post_processor": {
    "type": "TemplateProcessing",
    "single": [
      {
        "Sequence": {
          "id": "A",
          "type_id": 0
        }
      },
      {
        "SpecialToken": {
          "id": "<|end_of_text|>",
          "type_id": 0
        }
      }
    ],
    "pair": [
      {
        "Sequence": {
          "id": "A",
          "type_id": 0
        }
      },
      {
        "SpecialToken": {
          "id": "<|end_of_text|>",
          "type_id": 0
        }
      },
      {
        "Sequence": {
          "id": "B",
          "type_id": 1
        }
      },
      {
        "SpecialToken": {
          "id": "<|end_of_text|>",
          "type_id": 1
        }
      }
    ],
    "special_tokens": {
      "<|end_of_text|>": {
        "id": "<|end_of_text|>",
        "ids": [
          0
        ],
        "tokens": [
          "<|end_of_text|>"
        ]
      }
    }
  },
  "decoder": {
    "type": "ByteLevel",
    "add_prefix_space": true,
    "trim_offsets": true,
    "use_regex": true
  },
  "model": {
    "type": "BPE",
    "dropout": null,
    "unk_token": null,
    "continuing_subword_prefix": null,
    "end_of_word_suffix": null,
    "fuse_unk": false,
    "byte_fallback": false,
    "ignore_merges": false,
    "vocab": {
      "<|end_of_text|>": 0,
      "<|user|>": 1,
      "<|assistant|>": 2,
      "<|im_end|>": 3,
      "!": 4,
      "\"": 5,
      "#": 6,
      "$": 7,
      "%": 8,
      "&": 9,
      "'": 10,
      "(": 11,
      ")": 12,
      "*": 13,
      "+": 14,
      ",": 15,
      "-": 16,
      ".": 17,
      "/": 18,
      "0": 19,
      "1": 20,
      "2": 21,
      "3": 22,
      "4": 23,
      "5": 24,
      "6": 25,
      "7": 26,
      "8": 27,
      "9": 28,
      ":": 29,
      ";": 30,
      "<": 31,
      "=": 32,
      ">": 33,
      "?": 34,
      "@": 35,
      "A": 36,
      "B": 37,
      "C": 38,
      "D": 39,
      "E": 40,
      "F": 41,
      "G": 42,
      "H": 43,
      "I": 44,
      "J": 45,
      "K": 46,
      "L": 47,
      "M": 48,
      "N": 49,
      "O": 50,
      "P": 51,
      "Q": 52,
      "R": 53,
      "S": 54,
      "T": 55,
      "U": 56,
      "V": 57,
      "W": 58,
      "X": 59,
      "Y": 60,
      "Z": 61,
      "[": 62,
      "\\": 63,
      "]": 64,
      "^": 65,
      "_": 66,
      "`": 67,
      "a": 68,
      "b": 69,
      "c": 70,
      "d": 71,
      "e": 72,
      "f": 73,
      "g": 74,
      "h": 75,
      "i": 76,
      "j": 77,
      "k": 78,
      "l": 79,
      "m": 80,
      "n": 81,
      "o": 82,
      "p": 83,
      "q": 84,
      "r": 85,
      "s": 86,
      "t": 87,
      "u": 88,
      "v": 89,
      "w": 90,
      "x": 91,
      "y": 92,
      "z": 93,
      "{": 94,
      "|": 95,
      "}": 96,
      "~": 97,
      "¡": 98,
      "¢": 99,
      "£": 100,
      "¤": 101,
      "¥": 102,
      "¦": 103,
      "§": 104,
      "¨": 105,
      "©": 106,
      "ª": 107,
      "«": 108,
      "¬": 109,
      "®": 110,
      "¯": 111,
      "°": 112,
      "±": 113,
      "²": 114,
      "³": 115,
      "´": 116,
      "µ": 117,
      "¶": 118,
      "·": 119,
      "¸": 120,
      "¹": 121,
      "º": 122,
      "»": 123,
      "¼": 124,
      "½": 125,
      "¾": 126,
      "¿": 127,
      "À": 128,
      "Á": 129,
      "Â": 130,
      "Ã": 131,
      "Ä": 132,
      "Å": 133,
      "Æ": 134,
      "Ç": 135,
      "È": 136,
      "É": 137,
      "Ê": 138,
      "Ë": 139,
      "Ì": 140,
      "Í": 141,
      "Î": 142,
      "Ï": 143,
      "Ð": 144,
      "Ñ": 145,
      "Ò": 146,
      "Ó": 147,
      "Ô": 148,
      "Õ": 149,
      "Ö": 150,
      "×": 151,
      "Ø": 152,
      "Ù": 153,
      "Ú": 154,
      "Û": 155,
      "Ü": 156,
      "Ý": 157,
      "Þ": 158,
      "ß": 159,
      "à": 160,
      "á": 161,
      "â": 162,
      "ã": 163,
      "ä": 164,
      "å": 165,
      "æ": 166,
      "ç": 167,
      "è": 168,
      "é": 169,
      "ê": 170,
      "ë": 171,
      "ì": 172,
      "í": 173,
      "î": 174,
      "ï": 175,
      "ð": 176,
      "ñ": 177,
      "ò": 178,
      "ó": 179,
      "ô": 180,
      "õ": 181,
      "ö": 182,
      "÷": 183,
      "ø": 184,
      "ù": 185,
      "ú": 186,
      "û": 187,
      "ü": 188,
      "ý": 189,
      "þ": 190,
      "ÿ": 191,
      "Ā": 192,
      "ā": 193,
      "Ă": 194,
      "ă": 195,
      "Ą": 196,
      "ą": 197,
      "Ć": 198,
      "ć": 199,
      "Ĉ": 200,
      "ĉ": 201,
      "Ċ": 202,
      "ċ": 203,
      "Č": 204,
      "č": 205,
      "Ď": 206,
      "ď": 207,
      "Đ": 208,
      "đ": 209,
      "Ē": 210,
      "ē": 211,
      "Ĕ": 212,
      "ĕ": 213,
      "Ė": 214,
      "ė": 215,
      "Ę": 216,
      "ę": 217,
      "Ě": 218,
      "ě": 219,
      "Ĝ": 220,
      "ĝ": 221,
      "Ğ": 222,
      "ğ": 223,
      "Ġ": 224,
      "ġ": 225,
      "Ģ": 226,
      "ģ": 227,
      "Ĥ": 228,
      "ĥ": 229,
      "Ħ": 230,
      "ħ": 231,
      "Ĩ": 232,
      "ĩ": 233,
      "Ī": 234,
      "ī": 235,
      "Ĭ": 236,
      "ĭ": 237,
      "Į": 238,
      "į": 239,
      "İ": 240,
      "ı": 241,
      "Ĳ": 242,
      "ĳ": 243,
      "Ĵ": 244,
      "ĵ": 245,
      "Ķ": 246,
      "ķ": 247,
      "ĸ": 248,
      "Ĺ": 249,
      "ĺ": 250,
      "Ļ": 251,
      "ļ": 252,
      "Ľ": 253,
      "ľ": 254,
      "Ŀ": 255,
      "ŀ": 256,
      "Ł": 257,
      "ł": 258,
      "Ń": 259,
      "Ġt": 260,
      "Ġa": 261,
      "he": 262,
      "in": 263,
      "re": 264,
      "Ġthe": 265,
      "on": 266,
      "er": 267,
      "Ġs": 268,
      "Ġw": 269,
      "at": 270,
      "Ġo": 271,
      "en": 272,
      "Ġc": 273,
      "it": 274,
      "is": 275,
      "an": 276,
      "or": 277,
      "Ġb": 278,
      "es": 279,
      "ed": 280,
      "Ġf": 281,
      "ing": 282,
      "Ġp": 283,
      "ou": 284,
      "Ġan": 285,
      "al": 286,
      "Ġto": 287,
      "ar": 288,
      "Ġm": 289,
      "Ġin": 290,
      "Ġof": 291,
      "Ġh": 292,
      "Ġd": 293,
      "ĊĊ": 294,
      "as": 295,
      "ic": 296,
      "Ġand": 297,
      "âĢ": 298,
      "Ġth": 299,
      "le": 300,
      "om": 301,
      "ion": 302,
      "ll": 303,
      "ent": 304,
      "Ġn": 305,
      "Ġl": 306,
      "Ġre": 307,
      "st": 308,
      "ve": 309,
      "ly": 310,
      "Ġe": 311,
      "ro": 312,
      ".ĊĊ": 313,
      "Ġbe": 314,
      "Ġg": 315,
      "id": 316,
      "ut": 317,
      "ac": 318,
      "ot": 319,
      "ĠT": 320,
      "ĠI": 321,
      "Ġthat": 322,
      "Ġon": 323,
      "ay": 324,
      "ĠS": 325,
      "Ġis": 326,
      "et": 327,
      "im": 328,
      "am": 329,
      "ad": 330,
      "ow": 331,
      "se": 332,
      "ig": 333,
      "Ġfor": 334,
      "âĢĻ": 335,
      "ĠA": 336,
      "ver": 337,
      "ur": 338,
      "ct": 339,
      "ld": 340,
      "ĠC": 341,
      "Ġu": 342,
      "Ġst": 343,
      "Ġy": 344,
      "Ġit": 345,
      "Ġhe": 346,
      "ir": 347,
      "ation": 348,
      "ith": 349,
      "Ġwh": 350,
      "ĠM": 351,
      "ce": 352,
      "ter": 353,
      "ol": 354,
      "Ġwe": 355,
      "il": 356,
      "Ġwith": 357,
      "Ġas": 358,
      "ĠB": 359,
      "ch": 360,
      "ill": 361,
      "nd": 362,
      "ĠP": 363,
      "Ġwas": 364,
      "Ġyou": 365,
      "ers": 366,
      "ke": 367,
      "ĠâĢ": 368,
      "Ġcon": 369,
      "Ġde": 370,
      "Ġr": 371,
      "her": 372,
      "if": 373,
      "ate": 374,
      "Ġat": 375,
      "ag": 376,
      "âĢĻs": 377,
      "Ġha": 378,
      "ĠW": 379,
      "Ġse": 380,
      "ĠH": 381,
      "ore": 382,
      "Ġpro": 383,
      "ul": 384,
      "pp": 385,
      "ment": 386,
      "ri": 387,
      "Ġare": 388,
      "ĠD": 389,
      "est": 390,
      "us": 391,
      "ist": 392,
      "Ġcom": 393,
      "and": 394,
      "ĠR": 395,
      "op": 396,
      "ain": 397,
      "ĠThe": 398,
      "igh": 399,
      "rom": 400,
      "Ġ(": 401,
      "ort": 402,
      "od": 403,
      "Ġne": 404,
      "ĠF": 405,
      "un": 406,
      "um": 407,
      "Ġex": 408,
      "res": 409,
      "ab": 410,
      "âĢĿ": 411,
      "Ġnot": 412,
      "ĠN": 413,
      "Ġv": 414,
      "ess": 415,
      "Ġhave": 416,
      "ity": 417,
      "ould": 418,
      "em": 419,
      "Ġor": 420,
      "th": 421,
      "Ġby": 422,
      "os": 423,
      "ant": 424,
      "ĠG": 425,
      "ive": 426,
      "Ġfrom": 427,
      "Ġal": 428,
      "el": 429,
      "'s": 430,
      "oc": 431,
      "Ġsu": 432,
      "art": 433,
      "ĠL": 434,
      "Ġsh": 435,
      "Ġthis": 436,
      "nt": 437,
      "qu": 438,
      "ight": 439,
      "pe": 440,
      "ust": 441,
      "Ġle": 442,
      "ĠE": 443,
      "ies": 444,
      "end": 445,
      "Ġch": 446,
      "Ġsa": 447,
      "out": 448,
      "Ġab": 449,
      "The": 450,
      "all": 451,
      "ie": 452,
      "ack": 453,
      "20": 454,
      "red": 455,
      "ĠâĢľ": 456,
      "Ġhas": 457,
      "ally": 458,
      "ĠJ": 459,
      "Ġpl": 460,
      "Ġgo": 461,
      "ard": 462,
      "iv": 463,
      "ome": 464,
      "Ġhis": 465,
      "ap": 466,
      "gh": 467,
      "ost": 468,
      "ear": 469,
      "ĠO": 470,
      "our": 471,
      "Ġtr": 472,
      "ast": 473,
      "Ġj": 474,
      "ak": 475,
      "ud": 476,
      "Ġdo": 477,
      "Ġthey": 478,
      "Ġbut": 479,
      "Ġwor": 480,
      "rou": 481,
      "Ġcan": 482,
      "ge": 483,
      "Ġwill": 484,
      "Ġsaid": 485,
      "Ġwhe": 486,
      "ĠU": 487,
      "Ġk": 488,
      "ich": 489,
      "Ġall": 490,
      "ok": 491,
      "Ġ\"": 492,
      "Ġwho": 493,
      "ide": 494,
      "Ġint": 495,
      "ame": 496,
      "ans": 497,
      "ther": 498,
      "ial": 499,
      "Ġout": 500,
      "Ġtheir": 501,
      "ff": 502,
      "ong": 503,
      "ect": 504,
      "pl": 505,
      "ice": 506,
      "pt": 507,
      "ure": 508,
      "one": 509,
      "Ġmore": 510,
      "age": 511,
      "ions": 512,
      "act": 513,
      "ike": 514,
      "Ġme": 515,
      "Ġup": 516,
      "ous": 517,
      "ine": 518,
      "Ġad": 519,
      "Ġabout": 520,
      "ated": 521,
      "00": 522,
      "ra": 523,
      "ber": 524,
      "Ġone": 525,
      "Ġwere": 526,
      "Ġso": 527,
      "Ġus": 528,
      "og": 529,
      "ime": 530,
      "ĠK": 531,
      "ep": 532,
      "Ġhad": 533,
      "ia": 534,
      "are": 535,
      "ub": 536,
      "cc": 537,
      "Ġwould": 538,
      "Ġcl": 539,
      "Ġim": 540,
      "ind": 541,
      "Ġwhich": 542,
      "ake": 543,
      "ue": 544,
      "Ġcont": 545,
      "iz": 546,
      "very": 547,
      "Ġag": 548,
      "Ġte": 549,
      "Ġoff": 550,
      "Ġcomp": 551,
      "Ġun": 552,
      "Ġbeen": 553,
      "ĠSt": 554,
      "Ġen": 555,
      "so": 556,
      "per": 557,
      "au": 558,
      "ign": 559,
      "ĠTh": 560,
      "ary": 561,
      "ace": 562,
      "ip": 563,
      "Ġyear": 564,
      "ew": 565,
      "201": 566,
      "Ġlike": 567,
      "ere": 568,
      "âĢĻt": 569,
      "ven": 570,
      "ook": 571,
      "Ġinc": 572,
      "ays": 573,
      "Ġman": 574,
      "Ġpe": 575,
      "ry": 576,
      "ose": 577,
      "..": 578,
      "Ġres": 579,
      "ite": 580,
      "Ġper": 581,
      "able": 582,
      "ass": 583,
      "ord": 584,
      "Ġsp": 585,
      "ire": 586,
      "Ġother": 587,
      "ĠIn": 588,
      "mer": 589,
      "Ġsome": 590,
      "ile": 591,
      "ib": 592,
      "ence": 593,
      "ople": 594,
      "ks": 595,
      "ations": 596,
      "Ġover": 597,
      "Ġthere": 598,
      "ical": 599,
      "ress": 600,
      "Ġdis": 601,
      "ult": 602,
      "int": 603,
      "Ġnew": 604,
      "own": 605,
      "Ġthan": 606,
      "Ġalso": 607,
      "Ġar": 608,
      "Ġbec": 609,
      "Ġthem": 610,
      "ance": 611,
      "ru": 612,
      "ough": 613,
      "ount": 614,
      "port": 615,
      "Ġapp": 616,
      "Ġyour": 617,
      "ail": 618,
      "Ġpart": 619,
      "Ġwhen": 620,
      "Ġwhat": 621,
      "ree": 622,
      "ond": 623,
      "orm": 624,
      "Ġpeople": 625,
      "Ġsc": 626,
      "fter": 627,
      "av": 628,
      "ase": 629,
      "Ġqu": 630,
      "ĠCh": 631,
      "Ġany": 632,
      "Ġjust": 633,
      "ĠY": 634,
      "Ġits": 635,
      "ach": 636,
      "Ġtime": 637,
      "19": 638,
      "ĠIt": 639,
      "Ġkn": 640,
      "Ġher": 641,
      "ens": 642,
      "lic": 643,
      "Ġmy": 644,
      "Ġrec": 645,
      "reat": 646,
      "Ġget": 647,
      "Ġif": 648,
      "ĠV": 649,
      ".âĢĿ": 650,
      "ian": 651,
      "Ġinto": 652,
      "Ġwork": 653,
      "ound": 654,
      "Ġtw": 655,
      "irst": 656,
      "vel": 657,
      "Ġno": 658,
      "ction": 659,
      "du": 660,
      "ings": 661,
      "ory": 662,
      "ick": 663,
      "Ġour": 664,
      "ition": 665,
      "ident": 666,
      "ors": 667,
      "ob": 668,
      "Ġ-": 669,
      "Ġpre": 670,
      "ove": 671,
      "ang": 672,
      "Ġplay": 673,
      "ink": 674,
      "wn": 675,
      "ause": 676,
      "amp": 677,
      "te": 678,
      "ade": 679,
      "hing": 680,
      "ates": 681,
      "ark": 682,
      "Ġro": 683,
      "Ġshe": 684,
      "Ġpol": 685,
      "vers": 686,
      "Ġco": 687,
      "Ġafter": 688,
      ",âĢĿ": 689,
      "ne": 690,
      "Ġcould": 691,
      "Ġfirst": 692,
      "Ġhow": 693,
      "ĠHe": 694,
      "ious": 695,
      "Ġacc": 696,
      "nder": 697,
      "Ġhim": 698,
      "'t": 699,
      "ild": 700,
      "ons": 701,
      "aw": 702,
      "Ġpo": 703,
      "Ġonly": 704,
      "Ġfe": 705,
      "Ġatt": 706,
      "ict": 707,
      "hed": 708,
      "Ġpr": 709,
      "Ġtwo": 710,
      "rit": 711,
      "ov": 712,
      "ish": 713,
      "Ġcomm": 714,
      "Ġspe": 715,
      "âĢľ": 716,
      "form": 717,
      "Ġact": 718,
      "we": 719,
      "erv": 720,
      "Ġbl": 721,
      "ft": 722,
      "Ġbet": 723,
      ".\"": 724,
      "Ġdec": 725,
      "ning": 726,
      "Ġback": 727,
      "ces": 728,
      "Ġmost": 729,
      "ood": 730,
      "ck": 731,
      "ĠâĢĵ": 732,
      "Ġam": 733,
      "oy": 734,
      "Ġdid": 735,
      "iff": 736,
      "rough": 737,
      "round": 738,
      "ater": 739,
      "Ġagain": 740,
      "ual": 741,
      "day": 742,
      "ise": 743,
      "Ġwant": 744,
      "Ġdes": 745,
      "Ġunder": 746,
      "sel": 747,
      "ull": 748,
      "Ġcons": 749,
      "Ġbecause": 750,
      "ĠâĢĶ": 751,
      "Ġnow": 752,
      "lud": 753,
      "ents": 754,
      "Ġyears": 755,
      "man": 756,
      "ublic": 757,
      "Ġneed": 758,
      "tern": 759,
      "ec": 760,
      "Ġ$": 761,
      "Ġeven": 762,
      "iss": 763,
      "Ġinv": 764,
      "Ġknow": 765,
      "ĠWe": 766,
      "10": 767,
      "Ġsee": 768,
      "ments": 769,
      "ting": 770,
      "Ġadd": 771,
      ",\"": 772,
      "ced": 773,
      "old": 774,
      "Ġind": 775,
      "Ġsec": 776,
      ".âĢĿĊĊ": 777,
      "fore": 778,
      "Ġevery": 779,
      "uch": 780,
      "urn": 781,
      "Ġmake": 782,
      "Ġsupp": 783,
      "pect": 784,
      "ock": 785,
      "Ġem": 786,
      "Ġthese": 787,
      "ĠUn": 788,
      "oll": 789,
      "200": 790,
      "ject": 791,
      "Ġwhere": 792,
      "In": 793,
      "ational": 794,
      "vern": 795,
      "xt": 796,
      "Ġbu": 797,
      "Ġlook": 798,
      "ĠAnd": 799,
      "Th": 800,
      "oss": 801,
      "Ġdon": 802,
      "ump": 803,
      "Ġev": 804,
      "Ġway": 805,
      "ating": 806,
      "Ġright": 807,
      "Ġbeing": 808,
      "Ġrem": 809,
      "ily": 810,
      "ng": 811,
      "Ġmay": 812,
      "lect": 813,
      "row": 814,
      "Ġthen": 815,
      "Ġmany": 816,
      "iew": 817,
      "Ġdiff": 818,
      "Ġrel": 819,
      "Ġdef": 820,
      "ason": 821,
      "ĠBut": 822,
      "Ġcall": 823,
      "Ġ[": 824,
      "ĠTr": 825,
      "ont": 826,
      "Ġthink": 827,
      "ied": 828,
      "ased": 829,
      "Ġinclud": 830,
      "les": 831,
      "aking": 832,
      "meric": 833,
      "Ġreg": 834,
      "Ġimp": 835,
      "Ġthrough": 836,
      "rib": 837,
      "ath": 838,
      "ited": 839,
      "Ġshould": 840,
      "Ġsy": 841,
      "Ġsay": 842,
      "Ġfl": 843,
      "Ġpres": 844,
      "uring": 845,
      "Ġlast": 846,
      "Ġvery": 847,
      "ell": 848,
      "Ġthose": 849,
      "ty": 850,
      "ower": 851,
      "other": 852,
      "Ġmuch": 853,
      "ific": 854,
      "ities": 855,
      "Ġstate": 856,
      "ĠThis": 857,
      "tle": 858,
      "ss": 859,
      "ative": 860,
      "Ġshow": 861,
      "hen": 862,
      "Ġbr": 863,
      "arg": 864,
      "Ġwell": 865,
      "oth": 866,
      "ĠWh": 867,
      "Ġph": 868,
      "--": 869,
      "Ġcount": 870,
      "Ġdoes": 871,
      "als": 872,
      "und": 873,
      "Ġown": 874,
      "Ġdown": 875,
      "Ġend": 876,
      "arly": 877,
      "Ġbel": 878,
      "ics": 879,
      "Ġuse": 880,
      "Ġass": 881,
      "ange": 882,
      "ts": 883,
      "ĠAmeric": 884,
      "Ġlong": 885,
      "ters": 886,
      "ince": 887,
      "Ġbefore": 888,
      "omet": 889,
      "gr": 890,
      "ward": 891,
      "Ġmon": 892,
      "Ġgovern": 893,
      "ible": 894,
      "Ġstart": 895,
      "Ġreport": 896,
      "up": 897,
      "Ġke": 898,
      "ues": 899,
      "ĠNew": 900,
      "Ġfin": 901,
      ":ĊĊ": 902,
      "Ġteam": 903,
      "ble": 904,
      "ife": 905,
      "Ġmade": 906,
      "olog": 907,
      "),": 908,
      "ener": 909,
      "Ġsuch": 910,
      "ren": 911,
      "oun": 912,
      "com": 913,
      "ix": 914,
      "erson": 915,
      "âĢĶ": 916,
      "Ġsm": 917,
      "lp": 918,
      "Ġgoing": 919,
      "ility": 920,
      "ek": 921,
      "ism": 922,
      "Ġworld": 923,
      "ful": 924,
      ".\"ĊĊ": 925,
      "ually": 926,
      "ists": 927,
      "Ġstud": 928,
      "Ġgood": 929,
      "Ġac": 930,
      "tain": 931,
      "It": 932,
      "Ġsub": 933,
      "Ġeff": 934,
      "Ġsur": 935,
      "Ġagainst": 936,
      "Ġgame": 937,
      "its": 938,
      "Ġset": 939,
      "ork": 940,
      "Ġgu": 941,
      "Ġpoint": 942,
      "Ġent": 943,
      "ys": 944,
      "gan": 945,
      "ars": 946,
      "stem": 947,
      "li": 948,
      "Ġprov": 949,
      "Ġstill": 950,
      "roup": 951,
      "Ġwhile": 952,
      "Ġhelp": 953,
      "illion": 954,
      "Ġlead": 955,
      "ween": 956,
      "Ġmin": 957,
      "ax": 958,
      "ef": 959,
      "ank": 960,
      "ms": 961,
      "alk": 962,
      "Ġob": 963,
      "imes": 964,
      "cy": 965,
      "Ġsays": 966,
      "Ġprodu": 967,
      "Ġgr": 968,
      "000": 969,
      "Ġinst": 970,
      "Ġinter": 971,
      "Ġstr": 972,
      "cess": 973,
      "Ġsim": 974,
      "self": 975,
      "Ġconf": 976,
      "io": 977,
      "Ġcol": 978,
      "Ġtake": 979,
      "Ġsame": 980,
      "ures": 981,
      "Ġthough": 982,
      "arch": 983,
      "Ġbetween": 984,
      "Ġdiffere": 985,
      "Ġcr": 986,
      "ever": 987,
      "ollow": 988,
      "Ġoffic": 989,
      "uss": 990,
      "ool": 991,
      "Ġdisc": 992,
      ")ĊĊ": 993,
      "land": 994,
      "ah": 995,
      "ution": 996,
      "Ġop": 997,
      "read": 998,
      "air": 999,
      "Ġhigh": 1000,
      "Ġed": 1001,
      "Ġnum": 1002,
      "Ġsign": 1003,
      "Ġlaw": 1004,
      "way": 1005,
      "ĠRe": 1006,
      "Ġgovernment": 1007,
      "gg": 1008,
      "ner": 1009,
      "hip": 1010,
      "led": 1011,
      "ames": 1012,
      "atch": 1013,
      "hes": 1014,
      "any": 1015,
      "cent": 1016,
      "Ġter": 1017,
      "Ġsomet": 1018,
      "ted": 1019,
      "Ġref": 1020,
      "velop": 1021,
      "We": 1022,
      "Ġtrans": 1023,
      "Ġins": 1024,
      "ten": 1025,
      "Ġrun": 1026,
      "...": 1027,
      "Ġser": 1028,
      "Ġfound": 1029,
      "Ġaround": 1030,
      "ives": 1031,
      "Ġhere": 1032,
      "Ġthree": 1033,
      "ave": 1034,
      "Ġmem": 1035,
      "ather": 1036,
      "Ġmed": 1037,
      ").": 1038,
      "Ġreal": 1039,
      "ouse": 1040,
      "]ĊĊ": 1041,
      "Ġused": 1042,
      "ĠYou": 1043,
      "ved": 1044,
      "Ġexp": 1045,
      "az": 1046,
      "ĠAr": 1047,
      "cept": 1048,
      "oot": 1049,
      "?ĊĊ": 1050,
      "Ġsystem": 1051,
      "ci": 1052,
      "Ġreally": 1053,
      "ving": 1054,
      "Ġmod": 1055,
      "con": 1056,
      "Ġsupport": 1057,
      "Ġgroup": 1058,
      "cer": 1059,
      "Ġcour": 1060,
      "ets": 1061,
      "âĢĻre": 1062,
      "ale": 1063,
      "ins": 1064,
      "Ġhand": 1065,
      "Ġret": 1066,
      "Ġpublic": 1067,
      "ĠLe": 1068,
      "Ġspec": 1069,
      "pr": 1070,
      "ying": 1071,
      "12": 1072,
      "Ġgreat": 1073,
      "ense": 1074,
      "Ġcar": 1075,
      "Ġext": 1076,
      "ton": 1077,
      "Ġcur": 1078,
      "Ġfam": 1079,
      "irect": 1080,
      "alth": 1081,
      "ĠCom": 1082,
      ".[": 1083,
      "Ġhapp": 1084,
      "Ġwom": 1085,
      "Ġfact": 1086,
      "ĠTrump": 1087,
      "Ġexper": 1088,
      "ĠIs": 1089,
      "Ġfr": 1090,
      "ĠThey": 1091,
      "ph": 1092,
      "15": 1093,
      "Ġboth": 1094,
      "Ġcap": 1095,
      "Ġfind": 1096,
      "Ġday": 1097,
      "Ġread": 1098,
      "Ġlit": 1099,
      "ĠAl": 1100,
      "ular": 1101,
      "ines": 1102,
      "oh": 1103,
      "Ġrep": 1104,
      "uth": 1105,
      "Ġdet": 1106,
      "ices": 1107,
      "Ġsl": 1108,
      "Ġduring": 1109,
      "ered": 1110,
      "ĠSh": 1111,
      "ĠAs": 1112,
      "Ġcre": 1113,
      "Ġbig": 1114,
      "the": 1115,
      "min": 1116,
      "Ġmonth": 1117,
      "ision": 1118,
      "Ġserv": 1119,
      "Ġdevelop": 1120,
      "akes": 1121,
      "Ġperson": 1122,
      "Ġfollow": 1123,
      "Ġiss": 1124,
      "Ġtold": 1125,
      "ĠCl": 1126,
      "Ġsince": 1127,
      "ically": 1128,
      "ex": 1129,
      "ared": 1130,
      "med": 1131,
      "ages": 1132,
      "Ġweek": 1133,
      "Ġwar": 1134,
      "Ġfew": 1135,
      "ivers": 1136,
      "orth": 1137,
      "Ġcent": 1138,
      "ording": 1139,
      "11": 1140,
      "Ġleg": 1141,
      "Ġpolit": 1142,
      "aj": 1143,
      "get": 1144,
      "ves": 1145,
      "ash": 1146,
      "Ġexpl": 1147,
      "Ġlot": 1148,
      "Ġbelie": 1149,
      "ĠSe": 1150,
      "Ġtoo": 1151,
      "Ġgener": 1152,
      "ric": 1153,
      "Ġopp": 1154,
      "-b": 1155,
      "der": 1156,
      "rent": 1157,
      "ata": 1158,
      "Wh": 1159,
      "18": 1160,
      "Ġcontin": 1161,
      "iet": 1162,
      ".S": 1163,
      "Ġrequ": 1164,
      "Ġprot": 1165,
      "Ġfil": 1166,
      "anc": 1167,
      "bers": 1168,
      "ention": 1169,
      "ness": 1170,
      "Ġput": 1171,
      "Ġcle": 1172,
      "ized": 1173,
      "Ġresp": 1174,
      "ĠIf": 1175,
      "Ġanother": 1176,
      "Ġinf": 1177,
      "Ġsomething": 1178,
      "chool": 1179,
      "Ġdifferent": 1180,
      "Ġcor": 1181,
      "Ġloc": 1182,
      "ĠDe": 1183,
      "ute": 1184,
      "Ġinvest": 1185,
      "Ġsoc": 1186,
      "Ġche": 1187,
      "uc": 1188,
      "Ġpower": 1189,
      "Ġ'": 1190,
      "ĠFr": 1191,
      "Ġcommun": 1192,
      "Ġpass": 1193,
      "Ġart": 1194,
      "Ġplan": 1195,
      "Ġlife": 1196,
      "ience": 1197,
      "Ġhead": 1198,
      "ody": 1199,
      "Ġthings": 1200,
      "Ġrele": 1201,
      "ned": 1202,
      "Ġfar": 1203,
      "thing": 1204,
      "ox": 1205,
      "Ġmet": 1206,
      "Ġposs": 1207,
      "Ġvot": 1208,
      "30": 1209,
      "ross": 1210,
      "erest": 1211,
      "Ġcamp": 1212,
      "-s": 1213,
      "arge": 1214,
      "ier": 1215,
      "This": 1216,
      "view": 1217,
      "ants": 1218,
      "Ġmight": 1219,
      "Ġask": 1220,
      "ize": 1221,
      "Ġdep": 1222,
      "Ġeach": 1223,
      "iness": 1224,
      "Ġnever": 1225,
      "Ġchild": 1226,
      "Ġnext": 1227,
      "ik": 1228,
      "ield": 1229,
      "Ġsecond": 1230,
      "Ġquest": 1231,
      "ĠAn": 1232,
      "Ġadv": 1233,
      "Ġmark": 1234,
      "Ġbus": 1235,
      "ĠFor": 1236,
      "Ġdem": 1237,
      "Ġcome": 1238,
      "Ġgot": 1239,
      "tt": 1240,
      "ĠâĢĺ": 1241,
      "Ġbest": 1242,
      "ient": 1243,
      "Ġallow": 1244,
      "Ġopen": 1245,
      "ital": 1246,
      "ĠThat": 1247,
      "Ġseem": 1248,
      "ĠUS": 1249,
      "nce": 1250,
      "ple": 1251,
      "Ġfeel": 1252,
      "rat": 1253,
      "ĠPro": 1254,
      "Ġpost": 1255,
      "Ġpercent": 1256,
      "gram": 1257,
      "Ġpri": 1258,
      "ug": 1259,
      "Ġhome": 1260,
      "cl": 1261,
      "Ġdirect": 1262,
      "Ġdist": 1263,
      "ired": 1264,
      "Ġincre": 1265,
      "son": 1266,
      "Ġcontro": 1267,
      "ĠRep": 1268,
      "orn": 1269,
      "less": 1270,
      "osed": 1271,
      "Ġresult": 1272,
      "Ġhard": 1273,
      "Ġcare": 1274,
      "Ġcomple": 1275,
      "ately": 1276,
      "Ġplace": 1277,
      "Ġimport": 1278,
      "Ġwithout": 1279,
      "Ġav": 1280,
      "Ġmillion": 1281,
      "chn": 1282,
      "Ġincluding": 1283,
      "Ġinform": 1284,
      "Ġhum": 1285,
      "conom": 1286,
      "Ġide": 1287,
      "Ġproble": 1288,
      "ama": 1289,
      "Ġtop": 1290,
      "Ġbuild": 1291,
      "Ġnumber": 1292,
      "gy": 1293,
      "ĠBl": 1294,
      "aim": 1295,
      "Ġcountry": 1296,
      "-f": 1297,
      "oney": 1298,
      "Ġ.": 1299,
      "ret": 1300,
      "Ġstand": 1301,
      "ably": 1302,
      "ral": 1303,
      "Ġgl": 1304,
      "uro": 1305,
      "riend": 1306,
      "ished": 1307,
      "Ġfour": 1308,
      "Ġel": 1309,
      "Ġbetter": 1310,
      "co": 1311,
      "ways": 1312,
      "Ġpartic": 1313,
      "Ġrecent": 1314,
      "Ġtri": 1315,
      "Ġmov": 1316,
      "But": 1317,
      "Ġlet": 1318,
      "Ġinterest": 1319,
      "ration": 1320,
      "50": 1321,
      "Ġless": 1322,
      "-t": 1323,
      "Ġlittle": 1324,
      "Ġturn": 1325,
      "ead": 1326,
      "Ġseason": 1327,
      "Ġappro": 1328,
      "Ġbeh": 1329,
      "ling": 1330,
      "Ġbro": 1331,
      "line": 1332,
      "Ġcalled": 1333,
      "ract": 1334,
      "Ġmil": 1335,
      "16": 1336,
      "ised": 1337,
      "Ġcase": 1338,
      "app": 1339,
      "Ġdr": 1340,
      "Ġattack": 1341,
      "ĠInd": 1342,
      "Ġrest": 1343,
      "Ġpop": 1344,
      "ency": 1345,
      "Ġann": 1346,
      "Ġleft": 1347,
      "Ġmove": 1348,
      "Ġkeep": 1349,
      "ĠZ": 1350,
      "ĠThere": 1351,
      "ode": 1352,
      "Ġdidn": 1353,
      "ina": 1354,
      "Ġfull": 1355,
      "âĢĻve": 1356,
      "ering": 1357,
      "Ġmain": 1358,
      "14": 1359,
      "Ġfun": 1360,
      "ajor": 1361,
      "inal": 1362,
      "me": 1363,
      "Ġeffect": 1364,
      "Ġprev": 1365,
      "Ġtest": 1366,
      "leg": 1367,
      "Ġprogram": 1368,
      "Ġusing": 1369,
      "ature": 1370,
      "-p": 1371,
      "Ġpay": 1372,
      "Ġval": 1373,
      "Ġear": 1374,
      "__": 1375,
      "Ġpolice": 1376,
      "Ġwrit": 1377,
      "Ġform": 1378,
      "Ġeconom": 1379,
      "Ġpos": 1380,
      "Ġnews": 1381,
      "Ġdata": 1382,
      "Ġwin": 1383,
      "ĠAmerican": 1384,
      "Ġsit": 1385,
      "Ġlevel": 1386,
      "Ġchar": 1387,
      "ains": 1388,
      "iving": 1389,
      "13": 1390,
      "ined": 1391,
      "ready": 1392,
      "Ġsmall": 1393,
      "uck": 1394,
      "Ġlist": 1395,
      "He": 1396,
      "Ġschool": 1397,
      "ology": 1398,
      "rap": 1399,
      "mit": 1400,
      "ided": 1401,
      "'re": 1402,
      "ger": 1403,
      "ploy": 1404,
      "Ġeas": 1405,
      "Ġprocess": 1406,
      "ird": 1407,
      "Ġwomen": 1408,
      "Ġchange": 1409,
      ".com": 1410,
      "reen": 1411,
      "Ġhist": 1412,
      "Ġcurrent": 1413,
      "Ġprom": 1414,
      "17": 1415,
      "ians": 1416,
      "Ġrece": 1417,
      "Ġdri": 1418,
      "Ġcompany": 1419,
      "Ġpresident": 1420,
      "ĠSo": 1421,
      "used": 1422,
      "ohn": 1423,
      "Ġalready": 1424,
      "Ġmat": 1425,
      "ruct": 1426,
      "Ġty": 1427,
      "ĠUnited": 1428,
      "Ġ=": 1429,
      "wit": 1430,
      "Ġbre": 1431,
      "Ġwhy": 1432,
      "be": 1433,
      "-c": 1434,
      "Ġunt": 1435,
      "Ġalways": 1436,
      "Ġsol": 1437,
      "Ġexpect": 1438,
      "Ġmoney": 1439,
      "Ġlater": 1440,
      "ĠHow": 1441,
      "ĠOb": 1442,
      "Ġtechn": 1443,
      "Ġbusiness": 1444,
      "ron": 1445,
      "Ġbook": 1446,
      "ĠQ": 1447,
      "Ġofficial": 1448,
      "stand": 1449,
      "Ġclass": 1450,
      "Ġthing": 1451,
      "Ġproject": 1452,
      "Ġbo": 1453,
      "Ġjob": 1454,
      "ases": 1455,
      "iversity": 1456,
      "Ġclaim": 1457,
      "Ġorgan": 1458,
      "ĠPh": 1459,
      "ĠShe": 1460,
      "aign": 1461,
      "Ġtalk": 1462,
      "ards": 1463,
      "Ġinformation": 1464,
      "aff": 1465,
      "Ġdesign": 1466,
      "Ġprof": 1467,
      "Ġable": 1468,
      "ĠBe": 1469,
      "Ġchang": 1470,
      "Ġmajor": 1471,
      "Ġstory": 1472,
      "iven": 1473,
      "lection": 1474,
      "Ġhealth": 1475,
      "here": 1476,
      "Ġrese": 1477,
      "ertain": 1478,
      "Ġ--": 1479,
      "Ġpast": 1480,
      "Ġvis": 1481,
      "urs": 1482,
      "Ġfree": 1483,
      "ĠAd": 1484,
      "outh": 1485,
      "ption": 1486,
      "ĠCan": 1487,
      "Ġaway": 1488,
      "Ġoper": 1489,
      "ior": 1490,
      "Ġcity": 1491,
      "Ġmust": 1492,
      "rist": 1493,
      "199": 1494,
      "ural": 1495,
      "ample": 1496,
      "-d": 1497,
      "Ġhappen": 1498,
      "Ġimportant": 1499,
      "uthor": 1500,
      "Ġsk": 1501,
      "25": 1502,
      "urity": 1503,
      "acy": 1504,
      "Ġpat": 1505,
      "ury": 1506,
      "Ġkill": 1507,
      "ured": 1508,
      "Ġold": 1509,
      "Ġdoesn": 1510,
      "âĢĻm": 1511,
      "ending": 1512,
      "Ġleast": 1513,
      "Ġest": 1514,
      "Ġgrow": 1515,
      "ission": 1516,
      "ained": 1517,
      "Ġvar": 1518,
      "Ġcost": 1519,
      "Ġtell": 1520,
      "ides": 1521,
      "-y": 1522,
      "Ġmen": 1523,
      "Ġedit": 1524,
      "ider": 1525,
      "els": 1526,
      "Ġhop": 1527,
      "ney": 1528,
      "Ġdays": 1529,
      "Ġcame": 1530,
      "ĠGo": 1531,
      "St": 1532,
      "Ġstre": 1533,
      "Ġcampaign": 1534,
      "Ġconst": 1535,
      "Ġenough": 1536,
      "Ġaff": 1537,
      "resident": 1538,
      "ĠMar": 1539,
      "Ġkind": 1540,
      "Ġmaking": 1541,
      "ccess": 1542,
      "ern": 1543,
      "Ġview": 1544,
      "ĠSp": 1545,
      "oad": 1546,
      "Ġmar": 1547,
      "Ġlarge": 1548,
      "As": 1549,
      "Ġfamily": 1550,
      "Ġrecord": 1551,
      "Ġfriend": 1552,
      "ush": 1553,
      "Ġelect": 1554,
      "Ġtax": 1555,
      "eral": 1556,
      "Ġpolic": 1557,
      "ley": 1558,
      "ality": 1559,
      "ror": 1560,
      "ising": 1561,
      "ator": 1562,
      "pped": 1563,
      "Ġuntil": 1564,
      "ified": 1565,
      "ional": 1566,
      "----": 1567,
      "ived": 1568,
      "Ġvide": 1569,
      "Ġpolitical": 1570,
      "ott": 1571,
      "ee": 1572,
      "Ġdeal": 1573,
      "arent": 1574,
      "ries": 1575,
      "alf": 1576,
      "augh": 1577,
      "Ġworking": 1578,
      "bs": 1579,
      "ands": 1580,
      "Ġline": 1581,
      "side": 1582,
      "If": 1583,
      "ued": 1584,
      "Ġtook": 1585,
      "ĠRepublic": 1586,
      "Ġdeb": 1587,
      "ĠJohn": 1588,
      "Ġve": 1589,
      "aining": 1590,
      "Ġfore": 1591,
      "ister": 1592,
      "Ġair": 1593,
      "ane": 1594,
      "Ġes": 1595,
      "crib": 1596,
      "Ġbecome": 1597,
      "Ġactually": 1598,
      "Ġintern": 1599,
      "ocrat": 1600,
      "iol": 1601,
      "Ġmean": 1602,
      "ember": 1603,
      "aps": 1604,
      "work": 1605,
      "ony": 1606,
      "Ġfund": 1607,
      "ware": 1608,
      "ĠPl": 1609,
      "ĠSc": 1610,
      "Ġoften": 1611,
      "Ġformer": 1612,
      "Ġgive": 1613,
      "ann": 1614,
      "Ġever": 1615,
      "ĠEuro": 1616,
      "Ġwon": 1617,
      "most": 1618,
      "oint": 1619,
      "Ġaccording": 1620,
      "eng": 1621,
      "wh": 1622,
      "Ġgames": 1623,
      "aring": 1624,
      "Ġhuman": 1625,
      "Ġword": 1626,
      "Ġbas": 1627,
      "ison": 1628,
      "ization": 1629,
      "Ġbit": 1630,
      "Ġorder": 1631,
      "Ġreturn": 1632,
      "Ġtimes": 1633,
      "Ġname": 1634,
      "ĠRuss": 1635,
      "gin": 1636,
      "ĠDem": 1637,
      "100": 1638,
      "Ġdev": 1639,
      "ĠAll": 1640,
      "Ġsever": 1641,
      "ither": 1642,
      "by": 1643,
      "uture": 1644,
      "iqu": 1645,
      "ĠMc": 1646,
      "ER": 1647,
      "Ġpar": 1648,
      "icle": 1649,
      "ĠSy": 1650,
      "-m": 1651,
      "Ġwr": 1652,
      "Ġperform": 1653,
      "-year": 1654,
      "Ġcharac": 1655,
      "ĠOr": 1656,
      "Ġmarket": 1657,
      "Ġsing": 1658,
      "raft": 1659,
      "ĠCon": 1660,
      "ched": 1661,
      "Ġfac": 1662,
      "Ġdoing": 1663,
      "ĠAt": 1664,
      "idd": 1665,
      "There": 1666,
      "rop": 1667,
      "Ġnight": 1668,
      "mber": 1669,
      "ĠMay": 1670,
      "Ġra": 1671,
      "Ġappear": 1672,
      "Ġlear": 1673,
      "aken": 1674,
      "Ġplayers": 1675,
      "Ġ,": 1676,
      "Ġtoday": 1677,
      "Ġla": 1678,
      "ats": 1679,
      "Ġhaving": 1680,
      "Ġseen": 1681,
      "Ġearly": 1682,
      "Ġevent": 1683,
      "Ġsocial": 1684,
      "//": 1685,
      "Ġpot": 1686,
      "ĠPresident": 1687,
      "Ġmedia": 1688,
      "Ġchildren": 1689,
      "Ġwhether": 1690,
      "Ġcrit": 1691,
      "âĢĻll": 1692,
      "idence": 1693,
      "Ġcontrol": 1694,
      "Ġseveral": 1695,
      "Ġmeet": 1696,
      "Ġsure": 1697,
      "Ġwent": 1698,
      "Ġpress": 1699,
      "Ġfive": 1700,
      "iously": 1701,
      "artment": 1702,
      "ene": 1703,
      "Ġprop": 1704,
      "Ġyoung": 1705,
      "Ġmilit": 1706,
      "ories": 1707,
      "Ġequ": 1708,
      "Ġquestion": 1709,
      "ium": 1710,
      "Ġlikely": 1711,
      "24": 1712,
      "une": 1713,
      "Ġocc": 1714,
      "Ġmembers": 1715,
      "ĠYork": 1716,
      "Ġeng": 1717,
      "Ġcertain": 1718,
      "ots": 1719,
      "Ġwater": 1720,
      "vert": 1721,
      "enn": 1722,
      "Ġexample": 1723,
      "Ġdone": 1724,
      "ĠCol": 1725,
      "Ġvers": 1726,
      "Ġarg": 1727,
      "let": 1728,
      "Ġside": 1729,
      "Ġinvol": 1730,
      "Ġshort": 1731,
      "ĠStates": 1732,
      "ended": 1733,
      "Ġsuccess": 1734,
      "Ġant": 1735,
      "Ġalong": 1736,
      "ĠEurope": 1737,
      "ĠMr": 1738,
      "ential": 1739,
      "Ġhour": 1740,
      "ially": 1741,
      "And": 1742,
      "iver": 1743,
      "Ġmonths": 1744,
      "empt": 1745,
      "eb": 1746,
      "lf": 1747,
      "Ġwithin": 1748,
      "Ġsex": 1749,
      "Ġcourse": 1750,
      "ague": 1751,
      "Ġfight": 1752,
      "uff": 1753,
      "ubl": 1754,
      "ster": 1755,
      "Ġonce": 1756,
      "ĠObama": 1757,
      "Ġamong": 1758,
      "ulation": 1759,
      "imate": 1760,
      "urch": 1761,
      "Ġactiv": 1762,
      "rew": 1763,
      "nect": 1764,
      "Ġfuture": 1765,
      "iting": 1766,
      "Ġinvestig": 1767,
      "Ġunderstand": 1768,
      "Ġpossible": 1769,
      "ortun": 1770,
      "Ġconcer": 1771,
      "Ġcho": 1772,
      "ones": 1773,
      "ĠOn": 1774,
      "ĠBr": 1775,
      "Ġmeans": 1776,
      "!ĊĊ": 1777,
      "ggest": 1778,
      "Ġproblem": 1779,
      "Ġauthor": 1780,
      "Ġthought": 1781,
      "itive": 1782,
      "for": 1783,
      "ĠCar": 1784,
      "Ġpriv": 1785,
      "Ġviol": 1786,
      "ĠNo": 1787,
      "ourn": 1788,
      "Ġavail": 1789,
      "ball": 1790,
      "Ġproduct": 1791,
      "ivid": 1792,
      "my": 1793,
      "ler": 1794,
      "Ġknown": 1795,
      "oci": 1796,
      "Ġnon": 1797,
      "gress": 1798,
      "Ġyet": 1799,
      "Ġhold": 1800,
      "Ġacross": 1801,
      "Ġprotect": 1802,
      "ald": 1803,
      "Ġi": 1804,
      "Ġlocal": 1805,
      "Ġcommunity": 1806,
      "Ġfail": 1807,
      "inc": 1808,
      "Ġreason": 1809,
      "ĠWhen": 1810,
      "Ġsuggest": 1811,
      "ĠState": 1812,
      "Ġmakes": 1813,
      "Ġorig": 1814,
      "Ġ&": 1815,
      "âĢĵ": 1816,
      "verage": 1817,
      "not": 1818,
      "por": 1819,
      "Ġasked": 1820,
      "You": 1821,
      "orld": 1822,
      "ĠTe": 1823,
      "ederal": 1824,
      "Ġgiven": 1825,
      "aged": 1826,
      "Ġreported": 1827,
      "ensive": 1828,
      "Ġmus": 1829,
      "iber": 1830,
      "Ġothers": 1831,
      "Ġstrong": 1832,
      "Ġbelieve": 1833,
      "Ġprob": 1834,
      "Ġvideo": 1835,
      "to": 1836,
      "Ġgetting": 1837,
      "Ġben": 1838,
      "br": 1839,
      "ĠHouse": 1840,
      "Ġlight": 1841,
      "ances": 1842,
      "ober": 1843,
      "Ġannoun": 1844,
      "40": 1845,
      "itions": 1846,
      "Ġident": 1847,
      "ored": 1848,
      "-l": 1849,
      "Ġca": 1850,
      "Ġsent": 1851,
      "Ġcut": 1852,
      "iron": 1853,
      "Ġlim": 1854,
      "ĠCo": 1855,
      "iety": 1856,
      "ams": 1857,
      "ĠChrist": 1858,
      "ĠUniversity": 1859,
      "Ġcond": 1860,
      "urther": 1861,
      "Ġsour": 1862,
      "Ġcreat": 1863,
      "ashing": 1864,
      "'ve": 1865,
      "ament": 1866,
      "Ġnet": 1867,
      "ĠX": 1868,
      "Ġbat": 1869,
      "rest": 1870,
      "Ġnational": 1871,
      "Ġstarted": 1872,
      "Ġsaf": 1873,
      "arm": 1874,
      "Ġclose": 1875,
      ").ĊĊ": 1876,
      "Ġavailable": 1877,
      "For": 1878,
      "Ġdeath": 1879,
      "aster": 1880,
      ".,": 1881,
      "Ġhig": 1882,
      "Ġindust": 1883,
      "of": 1884,
      "Ġbased": 1885,
      "Ġissue": 1886,
      "resent": 1887,
      "Ġlove": 1888,
      "ĠDemocrat": 1889,
      "Ġlow": 1890,
      "Ġaccount": 1891,
      "use": 1892,
      "Ġfollowing": 1893,
      "Ġhistory": 1894,
      "Ġmom": 1895,
      "Ġemploy": 1896,
      "ĠCent": 1897,
      "ĠMin": 1898,
      "orts": 1899,
      "selves": 1900,
      "Ġago": 1901,
      "ability": 1902,
      "Ġcomes": 1903,
      "Ġtrying": 1904,
      "Ġparty": 1905,
      "ument": 1906,
      "Ġ#": 1907,
      "Ġalmost": 1908,
      "ĠAm": 1909,
      "uly": 1910,
      "Ġseries": 1911,
      "book": 1912,
      "utes": 1913,
      "gether": 1914,
      "Ġtogether": 1915,
      "AT": 1916,
      "Ġidea": 1917,
      "ĠAmerica": 1918,
      "ination": 1919,
      "hers": 1920,
      "Ġfoc": 1921,
      "Ġaccess": 1922,
      "ĠFl": 1923,
      "ief": 1924,
      "22": 1925,
      "ilar": 1926,
      "reed": 1927,
      "ails": 1928,
      "Ġisn": 1929,
      "Ġcommit": 1930,
      "itional": 1931,
      "Ġclear": 1932,
      "ĠSen": 1933,
      "ĠWhat": 1934,
      "Ġtrad": 1935,
      "Ġpract": 1936,
      "Ġadded": 1937,
      "Ġimpro": 1938,
      "ring": 1939,
      "erence": 1940,
      "Ġexperience": 1941,
      "though": 1942,
      "ĠOne": 1943,
      "Ġfilm": 1944,
      "rodu": 1945,
      "af": 1946,
      "Ġhalf": 1947,
      "ged": 1948,
      "ĠBro": 1949,
      "witter": 1950,
      "Ġhit": 1951,
      "ustom": 1952,
      "unch": 1953,
      "Ġrul": 1954,
      "Ġlooking": 1955,
      "ividual": 1956,
      "ograp": 1957,
      "Ġsix": 1958,
      "rael": 1959,
      "Ġanything": 1960,
      "rict": 1961,
      "Ġlive": 1962,
      "Ġanal": 1963,
      "Ġcomplete": 1964,
      "Ġarea": 1965,
      "inton": 1966,
      "erman": 1967,
      "minist": 1968,
      "Ġfav": 1969,
      "Ġris": 1970,
      "Ġmiss": 1971,
      "ai": 1972,
      "ĠComm": 1973,
      "ĠEx": 1974,
      "Ġpresent": 1975,
      "Ġsaying": 1976,
      "IN": 1977,
      "ows": 1978,
      "nes": 1979,
      "raw": 1980,
      "ote": 1981,
      "aid": 1982,
      "rug": 1983,
      "Ġbad": 1984,
      "ĠCanad": 1985,
      "Ġvict": 1986,
      "cially": 1987,
      "Ġbill": 1988,
      "back": 1989,
      "uge": 1990,
      "Ġtaken": 1991,
      "ert": 1992,
      "ĠPr": 1993,
      "Ġmor": 1994,
      "Ġcourt": 1995,
      "Ġentire": 1996,
      "ators": 1997,
      "Ġcompet": 1998,
      "ev": 1999,
      "ĠEng": 2000,
      "Ġtry": 2001,
      "Ġphot": 2002,
      "Ġbehind": 2003,
      "Ġaut": 2004,
      "'m": 2005,
      "ĠTo": 2006,
      "play": 2007,
      "Ġtre": 2008,
      "What": 2009,
      "wards": 2010,
      "ien": 2011,
      "Ġz": 2012,
      "Ġnear": 2013,
      "Ġer": 2014,
      "osp": 2015,
      "Ġmult": 2016,
      "23": 2017,
      "ĠPol": 2018,
      "Ġmilitary": 2019,
      "Ġsecurity": 2020,
      "Ġface": 2021,
      "Ġproper": 2022,
      "Ġdiscuss": 2023,
      "Ġ|": 2024,
      "Ġrather": 2025,
      "Ġindividual": 2026,
      "Ġtot": 2027,
      "ps": 2028,
      "Ġthreat": 2029,
      "ĠDon": 2030,
      "Ġsingle": 2031,
      "Ġstudy": 2032,
      "Ġmind": 2033,
      "ĠWar": 2034,
      "ĠBrit": 2035,
      "Ġquick": 2036,
      "ĠAf": 2037,
      "198": 2038,
      "Ġpubl": 2039,
      "atic": 2040,
      "amed": 2041,
      "Ġwanted": 2042,
      "irc": 2043,
      "Ġfall": 2044,
      "ĠSec": 2045,
      "ĠNorth": 2046,
      "Ġmess": 2047,
      "aper": 2048,
      "An": 2049,
      "Ġpolicy": 2050,
      "ris": 2051,
      "off": 2052,
      "ales": 2053,
      "ĠMan": 2054,
      "Ġsomeone": 2055,
      "lement": 2056,
      "ids": 2057,
      "Ġfood": 2058,
      "Ġsum": 2059,
      "lling": 2060,
      "On": 2061,
      "Ġ/": 2062,
      "Ġblack": 2063,
      "Ġcult": 2064,
      "21": 2065,
      "Ġspecial": 2066,
      "ON": 2067,
      "Ġbring": 2068,
      "Ġredu": 2069,
      "ĠGr": 2070,
      "60": 2071,
      "Ġplayer": 2072,
      "Ġland": 2073,
      "Ġcomb": 2074,
      "Ġkey": 2075,
      "ply": 2076,
      "Ġattempt": 2077,
      "Ġcompan": 2078,
      "ĠDep": 2079,
      "yn": 2080,
      "par": 2081,
      "When": 2082,
      "Ġtaking": 2083,
      "sh": 2084,
      "ĠBar": 2085,
      "ĠNational": 2086,
      "ify": 2087,
      "Ġfoot": 2088,
      "rote": 2089,
      "**": 2090,
      "olution": 2091,
      "elt": 2092,
      "viron": 2093,
      "Ġelse": 2094,
      "Ġbody": 2095,
      "Ġpret": 2096,
      "dd": 2097,
      "Ġspace": 2098,
      "ĠCal": 2099,
      "Ġprobably": 2100,
      "Ġ]ĊĊ": 2101,
      "go": 2102,
      "://": 2103,
      "ashington": 2104,
      "Ġnothing": 2105,
      "Ġfront": 2106,
      "ĠÂ": 2107,
      "RE": 2108,
      "Ġcou": 2109,
      "icult": 2110,
      "ĠWorld": 2111,
      "ches": 2112,
      "ĠIsrael": 2113,
      "Ġresearch": 2114,
      "Ġconnect": 2115,
      "over": 2116,
      "Ġcoming": 2117,
      "ĠIm": 2118,
      "Ġsw": 2119,
      "ĠClinton": 2120,
      "ĠCity": 2121,
      "Ġpoints": 2122,
      "-h": 2123,
      "Ġhowever": 2124,
      "ming": 2125,
      "Ġdescrib": 2126,
      "Ġjo": 2127,
      "cing": 2128,
      "ault": 2129,
      "reme": 2130,
      "Ġsimilar": 2131,
      "Ġbenef": 2132,
      "Ġeither": 2133,
      "Ġsignific": 2134,
      "lier": 2135,
      "ully": 2136,
      "Ġdecision": 2137,
      "Ġcoun": 2138,
      "aces": 2139,
      "Ġexist": 2140,
      "ĠHar": 2141,
      "Ġmass": 2142,
      "ĠAust": 2143,
      "ana": 2144,
      "Ġsus": 2145,
      "Ġtarg": 2146,
      "IS": 2147,
      "mb": 2148,
      "Ġimm": 2149,
      "Ġfeat": 2150,
      "That": 2151,
      "Ġconv": 2152,
      "irl": 2153,
      "Ġhouse": 2154,
      "Ġenc": 2155,
      "Ġrights": 2156,
      "27": 2157,
      "ĠSu": 2158,
      "asing": 2159,
      "AN": 2160,
      "-old": 2161,
      "Ġwa": 2162,
      "ww": 2163,
      "Ġfurther": 2164,
      "ung": 2165,
      "Ġchall": 2166,
      "Ġdoc": 2167,
      "Ġfire": 2168,
      "Ġcreate": 2169,
      "Ġwrote": 2170,
      "Ġban": 2171,
      "Ġservice": 2172,
      "So": 2173,
      "Ġfig": 2174,
      "Ġthird": 2175,
      "sy": 2176,
      "âĢĻd": 2177,
      "Ġrepl": 2178,
      "Ġpick": 2179,
      "Ġstop": 2180,
      "-w": 2181,
      "Ġcompl": 2182,
      "ĠWith": 2183,
      "ively": 2184,
      "Ġbegin": 2185,
      "Ġfield": 2186,
      "Ġissues": 2187,
      "now": 2188,
      "ape": 2189,
      "Ġwhole": 2190,
      "Ġrelations": 2191,
      "pping": 2192,
      "Ġstep": 2193,
      "Ġsuper": 2194,
      "ried": 2195,
      "Ġseems": 2196,
      "Ġmeas": 2197,
      "Ġeverything": 2198,
      "ran": 2199,
      "ently": 2200,
      "Ġcand": 2201,
      "pecially": 2202,
      "Ġ...": 2203,
      "amer": 2204,
      "Ġcompanies": 2205,
      "ĠJan": 2206,
      "28": 2207,
      "Ġexec": 2208,
      "Ġfederal": 2209,
      "Ġtra": 2210,
      "Ġey": 2211,
      "pite": 2212,
      "Ġroom": 2213,
      "sw": 2214,
      "ĠWashington": 2215,
      "ĠGu": 2216,
      "Ġdue": 2217,
      "Ġwatch": 2218,
      "aul": 2219,
      "ilt": 2220,
      "Ġlab": 2221,
      "ĠGe": 2222,
      "uation": 2223,
      "oon": 2224,
      "Ġleaders": 2225,
      "Ġsound": 2226,
      "Ġinfl": 2227,
      "head": 2228,
      "Ġself": 2229,
      "ibility": 2230,
      "Ġstates": 2231,
      "ĠHowever": 2232,
      "Ġrole": 2233,
      "Ġ:": 2234,
      "ivil": 2235,
      "iday": 2236,
      "Ġstri": 2237,
      "att": 2238,
      "Ch": 2239,
      "Ġcustom": 2240,
      "Ġofficials": 2241,
      "Ġreleased": 2242,
      "Ġdam": 2243,
      "Ġbegan": 2244,
      "eal": 2245,
      "ĠDav": 2246,
      "Ġstudents": 2247,
      "ery": 2248,
      "ĠApp": 2249,
      "Ġcharacter": 2250,
      "Ġposition": 2251,
      "Ġopt": 2252,
      "obal": 2253,
      "ĠSouth": 2254,
      "26": 2255,
      "ĠInst": 2256,
      "Ġmatter": 2257,
      "Ġoutside": 2258,
      "Ġfinal": 2259,
      "ender": 2260,
      "Ġener": 2261,
      "Ġdou": 2262,
      "Ġstatement": 2263,
      "Ã©": 2264,
      "ades": 2265,
      "Ġhimself": 2266,
      "Ġtreat": 2267,
      "Ġbreak": 2268,
      "Ġdevelopment": 2269,
      "Ġprovide": 2270,
      "sec": 2271,
      "Ġstat": 2272,
      "vironment": 2273,
      "Ġinit": 2274,
      "Ġabove": 2275,
      "Ġitself": 2276,
      "Ġamount": 2277,
      "Ġdi": 2278,
      "ĠPart": 2279,
      "Ġhours": 2280,
      "Ġaction": 2281,
      "Ġrepresent": 2282,
      "Ġthemselves": 2283,
      "Ġgun": 2284,
      "Ġoffice": 2285,
      "Ġcontinue": 2286,
      "Ġbecame": 2287,
      "iod": 2288,
      "ĠIntern": 2289,
      "Ġspecific": 2290,
      "Ġgeneral": 2291,
      "Ġaddress": 2292,
      "Ġneg": 2293,
      "Ġcountries": 2294,
      "aced": 2295,
      "ĠAss": 2296,
      "arter": 2297,
      "reg": 2298,
      "lish": 2299,
      "Ġlarg": 2300,
      "Ġsimply": 2301,
      "Ġtrue": 2302,
      "ask": 2303,
      "ograph": 2304,
      "Ġwasn": 2305,
      "cri": 2306,
      "lim": 2307,
      "ĠRes": 2308,
      "Ġsignificant": 2309,
      "'ll": 2310,
      "umb": 2311,
      "acebook": 2312,
      "Ġground": 2313,
      "oid": 2314,
      "ogn": 2315,
      "Ġinterview": 2316,
      "Ġrunning": 2317,
      "ĠJust": 2318,
      "ili": 2319,
      "Ġdifficult": 2320,
      "Ġbar": 2321,
      "Ġrad": 2322,
      "Ġevidence": 2323,
      "ĠEd": 2324,
      "BC": 2325,
      "Ġadminist": 2326,
      "Ġprofess": 2327,
      "Ġversion": 2328,
      "ream": 2329,
      "Ġneeds": 2330,
      "Ġcop": 2331,
      "Ġagree": 2332,
      "angu": 2333,
      "ogle": 2334,
      "Ġeveryone": 2335,
      "Ġdrug": 2336,
      "Ġtyp": 2337,
      "Ġgroups": 2338,
      "eks": 2339,
      "iddle": 2340,
      "Ġrespons": 2341,
      "Ġbuilding": 2342,
      "right": 2343,
      "Ġball": 2344,
      "Ġdom": 2345,
      "Ġwoman": 2346,
      "Ġshows": 2347,
      "ĠChina": 2348,
      "Ġmusic": 2349,
      "Ġcommon": 2350,
      "ĠGerman": 2351,
      "Ġlat": 2352,
      "lam": 2353,
      "Ġdest": 2354,
      "Ġneeded": 2355,
      "Ġinj": 2356,
      "Ġtem": 2357,
      "Ġbelow": 2358,
      "AR": 2359,
      "ift": 2360,
      "Ġexc": 2361,
      "ĠMed": 2362,
      "Ġrelease": 2363,
      "ournal": 2364,
      "Ġsaw": 2365,
      "Ġdeep": 2366,
      "Ġpretty": 2367,
      "ribut": 2368,
      "Ġinclude": 2369,
      "Ġquite": 2370,
      "Ġplayed": 2371,
      "Ġap": 2372,
      "Ġindustry": 2373,
      "ĠAb": 2374,
      "Ġsense": 2375,
      "Ġenergy": 2376,
      "Ġplaying": 2377,
      "Ġcandid": 2378,
      "29": 2379,
      "Ġmag": 2380,
      "ĠHis": 2381,
      "Ġphys": 2382,
      "ival": 2383,
      "Ġgen": 2384,
      "light": 2385,
      "Ġwhite": 2386,
      "isc": 2387,
      "Ġlegal": 2388,
      "atur": 2389,
      "yle": 2390,
      "Ġlate": 2391,
      "Ġfriends": 2392,
      "Ġabs": 2393,
      "Ġcharg": 2394,
      "Ġalleg": 2395,
      "AS": 2396,
      "How": 2397,
      "ĠAfter": 2398,
      "Ġinstead": 2399,
      "where": 2400,
      "Ġlost": 2401,
      "ĠWest": 2402,
      "Ġespecially": 2403,
      "Ġvalue": 2404,
      "Ġbillion": 2405,
      "Ġmot": 2406,
      "197": 2407,
      "Ġred": 2408,
      "osing": 2409,
      "ĠMus": 2410,
      "body": 2411,
      "Ġhom": 2412,
      "lev": 2413,
      "Ġhost": 2414,
      "oring": 2415,
      "Ġanim": 2416,
      "ĠNot": 2417,
      "istic": 2418,
      "Ġple": 2419,
      "Ġforward": 2420,
      "ager": 2421,
      "Ġrecently": 2422,
      "Ġobject": 2423,
      "ĠNews": 2424,
      "Ġtrack": 2425,
      "ccording": 2426,
      "omm": 2427,
      "oe": 2428,
      "Ġweeks": 2429,
      "Ġelection": 2430,
      "epend": 2431,
      "Ġvote": 2432,
      "ique": 2433,
      "Ġjud": 2434,
      "Ġsuff": 2435,
      "irt": 2436,
      "ĠWhite": 2437,
      "Ġdeter": 2438,
      "lt": 2439,
      "Ġ)": 2440,
      "ĠTwitter": 2441,
      "Ġchanges": 2442,
      "ĠOct": 2443,
      "Ġperiod": 2444,
      "Ġopportun": 2445,
      "medi": 2446,
      "eed": 2447,
      "Ġlo": 2448,
      "Ġlonger": 2449,
      "ached": 2450,
      "oke": 2451,
      "Ġpain": 2452,
      "arc": 2453,
      "Ġsite": 2454,
      "Ġaccept": 2455,
      "hod": 2456,
      "Ġep": 2457,
      "Ġsoon": 2458,
      "Ġshoot": 2459,
      "ĠWill": 2460,
      "Ġmoment": 2461,
      "Ġobs": 2462,
      "Ġhope": 2463,
      "Ġeconomic": 2464,
      "oph": 2465,
      "ĠCong": 2466,
      "ole": 2467,
      "Ġpie": 2468,
      "irm": 2469,
      "Ġdecl": 2470,
      "Ġcheck": 2471,
      "Ġwrong": 2472,
      "Ġblock": 2473,
      "Ġconsum": 2474,
      "ĠSept": 2475,
      "Ġrelig": 2476,
      "Ġtit": 2477,
      "Ġ{": 2478,
      "ĠMy": 2479,
      "____": 2480,
      "ĠDepartment": 2481,
      "ns": 2482,
      "....": 2483,
      "onse": 2484,
      "Ġpotential": 2485,
      "Ġhigher": 2486,
      "Ġcirc": 2487,
      "lege": 2488,
      "Ġworks": 2489,
      "Ġconsider": 2490,
      "ners": 2491,
      "Ġfocus": 2492,
      "alt": 2493,
      "ancial": 2494,
      "Ġshare": 2495,
      "Ġcred": 2496,
      "ĠMarch": 2497,
      "Ġeduc": 2498,
      "ij": 2499,
      "Ġheld": 2500,
      "key": 2501,
      "cial": 2502,
      "iding": 2503,
      "Ġonline": 2504,
      "Ġwebs": 2505,
      "Ġstay": 2506,
      "Ġwalk": 2507,
      "Ġled": 2508,
      "ĠDr": 2509,
      "ularly": 2510,
      "overed": 2511,
      "Ġreve": 2512,
      "Ġwords": 2513,
      "Ġparent": 2514,
      "Ġpred": 2515,
      "==": 2516,
      "Ġstru": 2517,
      "ĠThese": 2518,
      "Ġresults": 2519,
      "Ġ+": 2520,
      "ĠRepublican": 2521,
      "Ġrisk": 2522,
      "ĠSyri": 2523,
      "lear": 2524,
      "Ġreview": 2525,
      "bo": 2526,
      "Ġrev": 2527,
      "icro": 2528,
      "Ġsold": 2529,
      "Ġlaws": 2530,
      "fect": 2531,
      "Ġcontract": 2532,
      "Ġcode": 2533,
      "Ġfunction": 2534,
      "aut": 2535,
      "Ġwind": 2536,
      "Ġce": 2537,
      "cil": 2538,
      "Ġtotal": 2539,
      "Ġarticle": 2540,
      "ĠAug": 2541,
      "Ġaud": 2542,
      "Ġapplic": 2543,
      "ĠMe": 2544,
      "Ġservices": 2545,
      "They": 2546,
      "uary": 2547,
      "Ġminutes": 2548,
      "Ġpersonal": 2549,
      "ĠMich": 2550,
      "asons": 2551,
      "ients": 2552,
      "urd": 2553,
      "Ġanyone": 2554,
      "Ġage": 2555,
      "ilities": 2556,
      "anger": 2557,
      "ĠJune": 2558,
      "che": 2559,
      "itution": 2560,
      "Ġprim": 2561,
      "put": 2562,
      "Ġfavor": 2563,
      "Ġrate": 2564,
      "Ad": 2565,
      "haps": 2566,
      "Ġtarget": 2567,
      "Ġansw": 2568,
      "ule": 2569,
      "Ġpopular": 2570,
      "ateg": 2571,
      "ES": 2572,
      "Ġupd": 2573,
      "ĠSte": 2574,
      "Ġden": 2575,
      "apan": 2576,
      "Ġexpress": 2577,
      "fer": 2578,
      "Ġearlier": 2579,
      "Ġnecess": 2580,
      "Ġhy": 2581,
      "Ġdead": 2582,
      "Ġvol": 2583,
      "ĠPe": 2584,
      "pril": 2585,
      "80": 2586,
      "val": 2587,
      "ham": 2588,
      "Ġcomput": 2589,
      "Ġrespect": 2590,
      "aging": 2591,
      "Ġtechnology": 2592,
      "uel": 2593,
      "Ġgoal": 2594,
      "Ġexpected": 2595,
      "Ġcreated": 2596,
      "Ġenvironment": 2597,
      "ĠPar": 2598,
      "ends": 2599,
      "Ġproblems": 2600,
      "Ġsurpr": 2601,
      "Ġbase": 2602,
      "ude": 2603,
      "Ph": 2604,
      "Ġreceived": 2605,
      "reet": 2606,
      "tee": 2607,
      "Ġport": 2608,
      "Al": 2609,
      "ĠDo": 2610,
      "ĠJuly": 2611,
      "Ġscient": 2612,
      "na": 2613,
      "-st": 2614,
      "Ġways": 2615,
      "Ġincrease": 2616,
      "Ġeasy": 2617,
      "Ġanti": 2618,
      "Ġcomment": 2619,
      "isl": 2620,
      "iple": 2621,
      "Ġforce": 2622,
      "Ġshot": 2623,
      "ray": 2624,
      "Ġprivate": 2625,
      "ĠSm": 2626,
      "Ġquestions": 2627,
      "Ġcannot": 2628,
      "35": 2629,
      "Ġ<": 2630,
      "Ġannounced": 2631,
      "eter": 2632,
      "action": 2633,
      "ctor": 2634,
      "Ġpack": 2635,
      "ĠMond": 2636,
      "ĠGod": 2637,
      "Ġlangu": 2638,
      "Ġimpact": 2639,
      "ĠCongress": 2640,
      "Ġpur": 2641,
      "aterial": 2642,
      "ples": 2643,
      "atives": 2644,
      "hern": 2645,
      "aving": 2646,
      "ĠFacebook": 2647,
      "Ġinvolved": 2648,
      "ĠEn": 2649,
      "ills": 2650,
      "âĢľI": 2651,
      "omb": 2652,
      "Ġdiv": 2653,
      "lex": 2654,
      "Ġet": 2655,
      "itiz": 2656,
      "Ġspeak": 2657,
      "Ġexact": 2658,
      "hood": 2659,
      "Ġtype": 2660,
      "Ġmodel": 2661,
      "onst": 2662,
      "Ġexecut": 2663,
      "Ġnearly": 2664,
      "ires": 2665,
      "ĠAustral": 2666,
      "ourt": 2667,
      "Ġcivil": 2668,
      "mp": 2669,
      "uesday": 2670,
      "Ġrelationship": 2671,
      "Ġterror": 2672,
      "Ġstaff": 2673,
      "Ġsen": 2674,
      "ees": 2675,
      "okes": 2676,
      "Ġcases": 2677,
      "ĠFriday": 2678,
      "Ġinside": 2679,
      "-in": 2680,
      "Ġoriginal": 2681,
      "rem": 2682,
      "Ġcontent": 2683,
      "To": 2684,
      "Ġleave": 2685,
      "Ġresponse": 2686,
      "lled": 2687,
      "EN": 2688,
      "ĠRed": 2689,
      "Ġcapt": 2690,
      "Ġfans": 2691,
      "ĠGoogle": 2692,
      "ãģ": 2693,
      "Ġcoll": 2694,
      "ech": 2695,
      "Ġur": 2696,
      "ĠApril": 2697,
      "Ġinternational": 2698,
      "ĠCount": 2699,
      "Ġarrest": 2700,
      "At": 2701,
      "Ġaverage": 2702,
      "ging": 2703,
      "rel": 2704,
      "Ġbroad": 2705,
      "Ġliving": 2706,
      "Ġheart": 2707,
      "duct": 2708,
      "ky": 2709,
      "oto": 2710,
      "ĠMonday": 2711,
      "Ġreports": 2712,
      "Ġworth": 2713,
      "Ġkilled": 2714,
      "Ġnation": 2715,
      "ips": 2716,
      "ellig": 2717,
      "rain": 2718,
      "atural": 2719,
      "Ġcal": 2720,
      "Ġbecom": 2721,
      "ests": 2722,
      "Ġworked": 2723,
      "Ġusers": 2724,
      "Ġsource": 2725,
      "Ġsoft": 2726,
      "Ġimmedi": 2727,
      "Ġsubject": 2728,
      "joy": 2729,
      "ĠTuesday": 2730,
      "ops": 2731,
      "cast": 2732,
      "Ġchance": 2733,
      "Ġestab": 2734,
      "ĠPal": 2735,
      "Ġrespond": 2736,
      "Ġclub": 2737,
      "ĠAmericans": 2738,
      "ĠPer": 2739,
      "ites": 2740,
      "OR": 2741,
      "Ġcell": 2742,
      "Ġglobal": 2743,
      "Ġtakes": 2744,
      "ael": 2745,
      "Ġdel": 2746,
      "Ġability": 2747,
      "ext": 2748,
      "bor": 2749,
      "rought": 2750,
      "Ġoil": 2751,
      "Ġweap": 2752,
      "ĠAct": 2753,
      "Ġassoci": 2754,
      "Ġterms": 2755,
      "like": 2756,
      "Ġworkers": 2757,
      "Ġprice": 2758,
      "izing": 2759,
      "ĠJapan": 2760,
      "osition": 2761,
      "Ġdirector": 2762,
      "ological": 2763,
      "ises": 2764,
      "Ġroad": 2765,
      "hel": 2766,
      "Ġtou": 2767,
      "Ġpublished": 2768,
      "Ġdefin": 2769,
      "Ġcollect": 2770,
      "Ġfinancial": 2771,
      "ĠWhile": 2772,
      "ĠRussia": 2773,
      "Ġmid": 2774,
      "Ġsqu": 2775,
      "ĠWed": 2776,
      "Ġdecided": 2777,
      "ovember": 2778,
      ".m": 2779,
      "Ġlack": 2780,
      "Ġlog": 2781,
      "ĠSome": 2782,
      "Ġphone": 2783,
      "Ġmother": 2784,
      "-g": 2785,
      "Ġgave": 2786,
      "unt": 2787,
      "Ġbuy": 2788,
      "Ġgirl": 2789,
      "Ġstore": 2790,
      "Ġemer": 2791,
      "Ġinflu": 2792,
      "196": 2793,
      "Ġcapital": 2794,
      "Ġhappened": 2795,
      "ĠNow": 2796,
      "Ġrequire": 2797,
      "ĠCalif": 2798,
      "Ġ@": 2799,
      "clus": 2800,
      "Ġforeign": 2801,
      "Ġfem": 2802,
      "Ġgoes": 2803,
      "Ġcurrently": 2804,
      "Ġsituation": 2805,
      "ĠOff": 2806,
      "ĠSan": 2807,
      "ĠBy": 2808,
      "oved": 2809,
      "rown": 2810,
      "Ġlives": 2811,
      "Ġwhose": 2812,
      "Ġoffer": 2813,
      "Ġindic": 2814,
      "Ġmaterial": 2815,
      "Ġtal": 2816,
      "ino": 2817,
      "ĠGeor": 2818,
      "\"I": 2819,
      "ought": 2820,
      "70": 2821,
      "Ġplans": 2822,
      "Ġaffect": 2823,
      "vertise": 2824,
      "ĠSund": 2825,
      "nesday": 2826,
      "Ġmember": 2827,
      "bit": 2828,
      "Ġmethod": 2829,
      "Ġarri": 2830,
      "Ġparticip": 2831,
      "eg": 2832,
      "ĠJanuary": 2833,
      "rect": 2834,
      "Ġpict": 2835,
      "ĠAg": 2836,
      "ursday": 2837,
      "ĠFeb": 2838,
      "One": 2839,
      "Ġmeeting": 2840,
      "Ġrecogn": 2841,
      "Ġteams": 2842,
      "Ġturned": 2843,
      "ruction": 2844,
      "Ġbank": 2845,
      "ĠHill": 2846,
      "Ġevents": 2847,
      "Ġnetwork": 2848,
      "ĠSeptember": 2849,
      "fully": 2850,
      "order": 2851,
      "Ġsimple": 2852,
      "ese": 2853,
      "Ġintrodu": 2854,
      "Ġill": 2855,
      "Ġareas": 2856,
      "Ġnorm": 2857,
      "Ġcy": 2858,
      "ĠCor": 2859,
      "Ġregard": 2860,
      "ĠIslam": 2861,
      "Ġhuge": 2862,
      "Ġcouple": 2863,
      "Ġapproach": 2864,
      "Ġpage": 2865,
      "Ġperformance": 2866,
      "--------": 2867,
      "ĠTV": 2868,
      "ttp": 2869,
      "oud": 2870,
      "Ġcareer": 2871,
      "Ġtool": 2872,
      "45": 2873,
      "90": 2874,
      "Ġmis": 2875,
      "Ġfelt": 2876,
      "aur": 2877,
      "ĠGl": 2878,
      "ĠNovember": 2879,
      "apt": 2880,
      "ĠAfric": 2881,
      "\",": 2882,
      "ety": 2883,
      "Ġord": 2884,
      "Ġdeli": 2885,
      "Ġrace": 2886,
      "Ġemail": 2887,
      "ĠEl": 2888,
      "Ġquickly": 2889,
      "oor": 2890,
      "Ġround": 2891,
      "Ġhon": 2892,
      "aily": 2893,
      "ĠDavid": 2894,
      "Ġimprove": 2895,
      "Ġengine": 2896,
      "Ġnumbers": 2897,
      "Ġvictim": 2898,
      "ĠWednesday": 2899,
      "Ġadministration": 2900,
      "Ġvia": 2901,
      "ĠAng": 2902,
      "chie": 2903,
      "Ġpull": 2904,
      "istan": 2905,
      "Ġbuilt": 2906,
      "ened": 2907,
      "Ġfre": 2908,
      "avy": 2909,
      "Ġtext": 2910,
      "Ġloss": 2911,
      "Ġpers": 2912,
      "ĠThursday": 2913,
      "ructure": 2914,
      "ĠPaul": 2915,
      "ume": 2916,
      "Ġfather": 2917,
      "Ġthous": 2918,
      "ĠEuropean": 2919,
      "Ġeconomy": 2920,
      "iment": 2921,
      "AL": 2922,
      "ornia": 2923,
      "Ġproduction": 2924,
      "Ġboy": 2925,
      "Ġheard": 2926,
      "Ġdig": 2927,
      "Ġmatch": 2928,
      "Ġwebsite": 2929,
      "Ġenjoy": 2930,
      "ĠCourt": 2931,
      "Ġreveal": 2932,
      "Ġallowed": 2933,
      "Ġhands": 2934,
      "Ġrepe": 2935,
      "Ġboard": 2936,
      "pro": 2937,
      "Ġspent": 2938,
      "Ġtrade": 2939,
      "ights": 2940,
      "Ġwide": 2941,
      "ĠOctober": 2942,
      "Ġsecret": 2943,
      "cember": 2944,
      "Ġlower": 2945,
      "ĠSch": 2946,
      "Ġtravel": 2947,
      "Ġste": 2948,
      "ĠAugust": 2949,
      "-up": 2950,
      "Ġcover": 2951,
      "atory": 2952,
      "Ġincluded": 2953,
      "load": 2954,
      "Ġpoll": 2955,
      "Ġwants": 2956,
      "Sh": 2957,
      "uses": 2958,
      "Ġlegisl": 2959,
      "-based": 2960,
      "Ġtown": 2961,
      "Ġknew": 2962,
      "500": 2963,
      "Ġneigh": 2964,
      "?âĢĿ": 2965,
      "orters": 2966,
      "Ġbehav": 2967,
      "iction": 2968,
      "lin": 2969,
      "ĠBritish": 2970,
      "Ġsepar": 2971,
      "With": 2972,
      "estern": 2973,
      "ĠSunday": 2974,
      "ÂŃ": 2975,
      "Ġgets": 2976,
      "Ġvisit": 2977,
      "Ġperfect": 2978,
      "ences": 2979,
      "ctions": 2980,
      "ĠCanada": 2981,
      "anks": 2982,
      "ishing": 2983,
      "Ġmovement": 2984,
      "agement": 2985,
      "Ġtried": 2986,
      "ession": 2987,
      "gest": 2988,
      "raz": 2989,
      ");": 2990,
      "Ġbi": 2991,
      "Ġcause": 2992,
      "Ġforces": 2993,
      "Ġfear": 2994,
      "Ġens": 2995,
      "Ġattention": 2996,
      "Ġparticular": 2997,
      "ĠKore": 2998,
      "After": 2999,
      "ening": 3000,
      "99": 3001,
      "Ġ}": 3002,
      "Ġpopulation": 3003,
      "ceed": 3004,
      "Ġreach": 3005,
      "Ġbrought": 3006,
      "Ġlooks": 3007,
      "31": 3008,
      "urning": 3009,
      "oo": 3010,
      "Ġvarious": 3011,
      "ibly": 3012,
      "Ġvo": 3013,
      "uk": 3014,
      "arily": 3015,
      "Ġbud": 3016,
      "32": 3017,
      "ĠUK": 3018,
      "Ġgrowth": 3019,
      "ĠCalifornia": 3020,
      "Ġmention": 3021,
      "Ġprevious": 3022,
      "aker": 3023,
      "ground": 3024,
      "ĠQu": 3025,
      "ED": 3026,
      "Ġlink": 3027,
      "'d": 3028,
      "Ġmorning": 3029,
      "Ġveh": 3030,
      "ĠRussian": 3031,
      "undred": 3032,
      "AC": 3033,
      "Ġfair": 3034,
      "Ġfell": 3035,
      "alled": 3036,
      "Ġtraining": 3037,
      "idered": 3038,
      "cement": 3039,
      "Ġprogress": 3040,
      "yond": 3041,
      "face": 3042,
      "ma": 3043,
      "sequ": 3044,
      "iam": 3045,
      "Ġsize": 3046,
      "cies": 3047,
      "US": 3048,
      "][": 3049,
      "Ġcontact": 3050,
      "idents": 3051,
      "ĠCont": 3052,
      "ĠDecember": 3053,
      "Ġdemand": 3054,
      "Ġimage": 3055,
      "ĠSw": 3056,
      "Ġrac": 3057,
      "ĠBlack": 3058,
      "Ġhot": 3059,
      "ĠIS": 3060,
      "Ġsong": 3061,
      "ledge": 3062,
      "ze": 3063,
      "ĠPost": 3064,
      "While": 3065,
      "Ġleader": 3066,
      "cle": 3067,
      "Ġhor": 3068,
      "ĠHer": 3069,
      "Ġcitiz": 3070,
      "ecause": 3071,
      "-M": 3072,
      "Ġrules": 3073,
      "Ġess": 3074,
      "Ġliber": 3075,
      "inks": 3076,
      "ification": 3077,
      "Ġsearch": 3078,
      "Ġprep": 3079,
      "ĠStreet": 3080,
      "IT": 3081,
      "Ġlatest": 3082,
      "Ġstrugg": 3083,
      "Ġupon": 3084,
      "Ġcoach": 3085,
      "Ġfast": 3086,
      "arth": 3087,
      "Ġtalking": 3088,
      "come": 3089,
      "Ġindepend": 3090,
      "ondon": 3091,
      "OS": 3092,
      "uments": 3093,
      "hold": 3094,
      "iant": 3095,
      "Ġspeed": 3096,
      "ett": 3097,
      "ĠPark": 3098,
      "Ġwond": 3099,
      "Ġreb": 3100,
      "Ġfeatures": 3101,
      "ĠSenate": 3102,
      "omp": 3103,
      "Ġaddition": 3104,
      "ĠPat": 3105,
      "ges": 3106,
      "Ġexam": 3107,
      "Ġstar": 3108,
      "Ġsubs": 3109,
      "ĠJew": 3110,
      "icles": 3111,
      "Tr": 3112,
      "elligence": 3113,
      "IC": 3114,
      "Ġconsidered": 3115,
      "aries": 3116,
      "Ġlanguage": 3117,
      "ĠTimes": 3118,
      "Ġmedical": 3119,
      "aturday": 3120,
      "ĠParty": 3121,
      "Ġlevels": 3122,
      "eth": 3123,
      "raq": 3124,
      "ille": 3125,
      "Ġslow": 3126,
      "imately": 3127,
      "aph": 3128,
      "ĠCounty": 3129,
      "Ġachie": 3130,
      "Ġinvestigation": 3131,
      "Ġund": 3132,
      "unk": 3133,
      "Ġsn": 3134,
      "ĠCenter": 3135,
      "vent": 3136,
      "Ġmach": 3137,
      "ope": 3138,
      "Ġcard": 3139,
      "ĠIndia": 3140,
      "Ġsort": 3141,
      "field": 3142,
      "Ġcritic": 3143,
      "ĠKing": 3144,
      "uf": 3145,
      "het": 3146,
      "Ġdoll": 3147,
      "ysis": 3148,
      "imin": 3149,
      "Ġpaper": 3150,
      "wo": 3151,
      "Ġbox": 3152,
      "ĠIran": 3153,
      "uit": 3154,
      "Ġpen": 3155,
      "Ġconserv": 3156,
      "Ġprior": 3157,
      "ĠTex": 3158,
      "Ġsexual": 3159,
      "Ġsystems": 3160,
      "sych": 3161,
      "Ġparents": 3162,
      "Ġjobs": 3163,
      "Ġhear": 3164,
      "Ġdocument": 3165,
      "atform": 3166,
      "Ġspokes": 3167,
      "-A": 3168,
      "igr": 3169,
      "Ġwritten": 3170,
      "Ġsens": 3171,
      "Ġincreasing": 3172,
      "Ġdraw": 3173,
      "Ġconduct": 3174,
      "Ġseven": 3175,
      "Ġseek": 3176,
      "mon": 3177,
      "ani": 3178,
      "eared": 3179,
      "ruary": 3180,
      "idge": 3181,
      "Ġprevent": 3182,
      "ĠMuslim": 3183,
      "Ġlearn": 3184,
      "Ġextreme": 3185,
      "Ġeffort": 3186,
      "ining": 3187,
      "OP": 3188,
      "pir": 3189,
      "33": 3190,
      "Ġâ": 3191,
      "Ġserious": 3192,
      "rast": 3193,
      "Ġson": 3194,
      "Ġcompletely": 3195,
      "Ġinn": 3196,
      "Ġscreen": 3197,
      ".)": 3198,
      "ĠMark": 3199,
      "Ġregul": 3200,
      "Ġeight": 3201,
      "room": 3202,
      "Ġrange": 3203,
      "bed": 3204,
      "ources": 3205,
      "Ġconc": 3206,
      "itch": 3207,
      "Ġviolence": 3208,
      "Ġmessage": 3209,
      "Ġobv": 3210,
      "Ġsurve": 3211,
      "ha": 3212,
      "Ġdespite": 3213,
      "ĠIraq": 3214,
      "Ġdoub": 3215,
      "Ġinteresting": 3216,
      "reedom": 3217,
      "ico": 3218,
      "Ġopportunity": 3219,
      "Ġclaims": 3220,
      "rench": 3221,
      "Ġparticularly": 3222,
      "ĠEm": 3223,
      "eff": 3224,
      "anced": 3225,
      "Ġextra": 3226,
      "Ġanswer": 3227,
      "ĠChar": 3228,
      "ĠRom": 3229,
      "Ġsociety": 3230,
      "Ġmajority": 3231,
      "abor": 3232,
      "Ġjournal": 3233,
      "ĠLondon": 3234,
      "Ġattacks": 3235,
      "erve": 3236,
      "Ġguy": 3237,
      "Ġexactly": 3238,
      "Ġcarry": 3239,
      "entially": 3240,
      "Ġbiggest": 3241,
      "ĠKe": 3242,
      "ux": 3243,
      "ĠDonald": 3244,
      "illed": 3245,
      "Ġclimate": 3246,
      "Ġcross": 3247,
      "Ġrequired": 3248,
      "Ġaren": 3249,
      "ĠMore": 3250,
      "ibr": 3251,
      "iers": 3252,
      "isions": 3253,
      "aming": 3254,
      "Ġpaid": 3255,
      "Ġdefense": 3256,
      "Ġhundred": 3257,
      "Ġexperien": 3258,
      "Ġmodern": 3259,
      "ension": 3260,
      "Ġpractice": 3261,
      "erc": 3262,
      "ĠEast": 3263,
      "She": 3264,
      "Ġexcept": 3265,
      "ari": 3266,
      "vertisement": 3267,
      "lying": 3268,
      "ĠSaturday": 3269,
      "Ġquarter": 3270,
      "Ġofficers": 3271,
      "add": 3272,
      "Ġnatural": 3273,
      "oses": 3274,
      "inese": 3275,
      "Ġremain": 3276,
      "Ġscience": 3277,
      "inally": 3278,
      "Ġlooked": 3279,
      "nces": 3280,
      "Ġcertainly": 3281,
      "Ġhistor": 3282,
      "uclear": 3283,
      "Ġsurv": 3284,
      "utions": 3285,
      "Ġgas": 3286,
      "Ġstories": 3287,
      "Ġmiddle": 3288,
      "Ġdro": 3289,
      "Ġstuff": 3290,
      "Ġlay": 3291,
      "Ġtable": 3292,
      "Ġfinally": 3293,
      "Ġsometimes": 3294,
      "Ġcommunic": 3295,
      "ĠNet": 3296,
      "-r": 3297,
      "Ġproducts": 3298,
      "Ġmovie": 3299,
      "sc": 3300,
      "ĠSand": 3301,
      "ospital": 3302,
      "Ġrout": 3303,
      "Ġconvers": 3304,
      "aves": 3305,
      "-to": 3306,
      "Ġimag": 3307,
      "AM": 3308,
      "Ġleading": 3309,
      "ĠMcC": 3310,
      "ously": 3311,
      "Ġaw": 3312,
      "ĠSpe": 3313,
      "ny": 3314,
      "Ġpan": 3315,
      "Ġdescribed": 3316,
      "Ġones": 3317,
      "pper": 3318,
      "Ġult": 3319,
      "Ġdetails": 3320,
      "Ġsummer": 3321,
      "Ġterm": 3322,
      "Ġuser": 3323,
      "Ġchanged": 3324,
      "36": 3325,
      "Ġprison": 3326,
      "hib": 3327,
      "ĠFebruary": 3328,
      "Ġblood": 3329,
      "Ġquality": 3330,
      "Ġstarting": 3331,
      "Ġshowed": 3332,
      "icks": 3333,
      "Ġgiving": 3334,
      "uing": 3335,
      "down": 3336,
      "Ġoccur": 3337,
      "akers": 3338,
      "Ġprovided": 3339,
      "Ġnamed": 3340,
      "arr": 3341,
      "Ġ*": 3342,
      "Ġremains": 3343,
      "Ġcosts": 3344,
      "asc": 3345,
      "ĠTH": 3346,
      "Ġregion": 3347,
      "aught": 3348,
      "ida": 3349,
      "ĠSoc": 3350,
      "Ġfit": 3351,
      "Ġpoor": 3352,
      "Ġdanger": 3353,
      "Ġpath": 3354,
      "enge": 3355,
      "ĠÐ": 3356,
      "ĠChe": 3357,
      "yl": 3358,
      "ĠMor": 3359,
      "Ġchief": 3360,
      "Ġeducation": 3361,
      "Ġmultiple": 3362,
      "Ġmob": 3363,
      "Ġdamage": 3364,
      "Ġgrowing": 3365,
      "coin": 3366,
      "No": 3367,
      "Ġwriting": 3368,
      "Ġment": 3369,
      "ĠInt": 3370,
      "Ġparts": 3371,
      "Ġcontinued": 3372,
      "Ġdemonst": 3373,
      "Ġthinking": 3374,
      "Ġassist": 3375,
      "Ġcomments": 3376,
      "Ġsafe": 3377,
      "ĠEven": 3378,
      "Ġpurp": 3379,
      "inary": 3380,
      "Ġfix": 3381,
      "bl": 3382,
      "Ġmaintain": 3383,
      "ĠTur": 3384,
      "34": 3385,
      "Ġready": 3386,
      "ĠDes": 3387,
      "ĠRepublicans": 3388,
      "FL": 3389,
      "fl": 3390,
      "Ġwrite": 3391,
      "Ġpurch": 3392,
      "âĢľThe": 3393,
      "Ġwouldn": 3394,
      "Ġdied": 3395,
      "Ġincreased": 3396,
      "ĠDemocratic": 3397,
      "Ġculture": 3398,
      "ago": 3399,
      "\"ĊĊ": 3400,
      "Ġvoters": 3401,
      "Ġrequest": 3402,
      "Ġimplement": 3403,
      "Ġfile": 3404,
      "ĠLeague": 3405,
      "Ġmill": 3406,
      "ĠGener": 3407,
      "fort": 3408,
      "ĠCoun": 3409,
      "mitted": 3410,
      "ables": 3411,
      "Ġefforts": 3412,
      "Ġcamer": 3413,
      "iminal": 3414,
      "...ĊĊ": 3415,
      "-S": 3416,
      "oper": 3417,
      "ems": 3418,
      "aly": 3419,
      "Ġspot": 3420,
      "Ġcalls": 3421,
      "Ġhous": 3422,
      "Ġperhaps": 3423,
      "arian": 3424,
      "Ġalone": 3425,
      "Ġguys": 3426,
      "Ġreading": 3427,
      "zz": 3428,
      "Ġtowards": 3429,
      "Ġalthough": 3430,
      "Ġcele": 3431,
      "Ġstandard": 3432,
      "Ġusually": 3433,
      "Ġconsist": 3434,
      "ĠJames": 3435,
      "Ġeffects": 3436,
      "Ġreality": 3437,
      "Ġselect": 3438,
      "Ġdirectly": 3439,
      "Ġplatform": 3440,
      "Ġavoid": 3441,
      "Ġbeyond": 3442,
      "ĠBill": 3443,
      "Ġkids": 3444,
      "ĠFirst": 3445,
      "using": 3446,
      "iles": 3447,
      "Ġfootball": 3448,
      "ban": 3449,
      "Ġspeech": 3450,
      "icated": 3451,
      "oul": 3452,
      "Ġ(@": 3453,
      "Ġsubst": 3454,
      "ĠChinese": 3455,
      "Ġcouldn": 3456,
      "Ġunf": 3457,
      "ĠMichael": 3458,
      "Ġscene": 3459,
      "ĠTexas": 3460,
      "egr": 3461,
      "Ġthroughout": 3462,
      "Ġstudent": 3463,
      "Ġincludes": 3464,
      "ara": 3465,
      "rowd": 3466,
      "itute": 3467,
      "Ġcomplex": 3468,
      "Ġcenter": 3469,
      "Ġimmediately": 3470,
      "Re": 3471,
      "ĠCons": 3472,
      "Ġcat": 3473,
      "ford": 3474,
      "Ġchalleng": 3475,
      "anch": 3476,
      "Ġrob": 3477,
      "Ġconcept": 3478,
      "Ġclos": 3479,
      "Ġepis": 3480,
      "Ġrecomm": 3481,
      "Ġwife": 3482,
      "BI": 3483,
      "Ġchoice": 3484,
      "hest": 3485,
      "Ġver": 3486,
      "Ġtro": 3487,
      "Ġadditional": 3488,
      "urg": 3489,
      "Ġil": 3490,
      "urt": 3491,
      "ston": 3492,
      "Ġresearc": 3493,
      "Ġremember": 3494,
      "37": 3495,
      "ĠMon": 3496,
      "ĠJack": 3497,
      "Ġsle": 3498,
      "Ġgone": 3499,
      "ĠIndian": 3500,
      "itor": 3501,
      "Ġsafety": 3502,
      "Ġdesigned": 3503,
      "Ġten": 3504,
      "Ġcast": 3505,
      "Ġcorpor": 3506,
      "ĠSer": 3507,
      "Ġagency": 3508,
      "astic": 3509,
      "ports": 3510,
      "Ġpiece": 3511,
      "rupt": 3512,
      "aches": 3513,
      "omen": 3514,
      "Ġahead": 3515,
      "Ġsoftware": 3516,
      "Ġbattle": 3517,
      "Ġofficer": 3518,
      "Ġdebate": 3519,
      "Ġfigure": 3520,
      "Ġbrain": 3521,
      "Ġopin": 3522,
      "Ġtoward": 3523,
      "ĠMinister": 3524,
      "cript": 3525,
      "ilies": 3526,
      "Now": 3527,
      "pre": 3528,
      "Ġswe": 3529,
      "set": 3530,
      "Ġsell": 3531,
      "ression": 3532,
      "Ġcounter": 3533,
      "All": 3534,
      "Ġthousands": 3535,
      "Ġblog": 3536,
      "ĠBo": 3537,
      "icient": 3538,
      "agon": 3539,
      "Ġoption": 3540,
      "Ġletter": 3541,
      "irth": 3542,
      "Ġsil": 3543,
      "imum": 3544,
      "Ġrelative": 3545,
      "atever": 3546,
      "Ġpressure": 3547,
      "OT": 3548,
      "Ġprec": 3549,
      "airs": 3550,
      "Ġreceive": 3551,
      "Ġmoved": 3552,
      "ampions": 3553,
      "Ġstage": 3554,
      "Ġut": 3555,
      "Ġpassed": 3556,
      "adem": 3557,
      "38": 3558,
      "oes": 3559,
      "Ġappears": 3560,
      "roy": 3561,
      "ĠPlay": 3562,
      "olute": 3563,
      "ĠGreen": 3564,
      "ĠII": 3565,
      "Ġlaunch": 3566,
      "Ġclean": 3567,
      "Ġproperty": 3568,
      "Ġmeaning": 3569,
      "ĠServ": 3570,
      "-se": 3571,
      "just": 3572,
      "Ġhelped": 3573,
      "Ġdog": 3574,
      "Im": 3575,
      "Ġdisapp": 3576,
      "Ġtwe": 3577,
      "Ġrock": 3578,
      "new": 3579,
      "ĠApple": 3580,
      "ĠAssoci": 3581,
      "Ġcris": 3582,
      "Ġdark": 3583,
      "Ġ>": 3584,
      "itation": 3585,
      "ĠThen": 3586,
      "Ġorganization": 3587,
      "Ġalleged": 3588,
      "Ġdrive": 3589,
      "Ġscore": 3590,
      "Ġconditions": 3591,
      "Ġsat": 3592,
      "berg": 3593,
      "Ġtouch": 3594,
      "Ġsuspect": 3595,
      "aughter": 3596,
      "Ġmoving": 3597,
      "Ġdate": 3598,
      "Ġreasons": 3599,
      "Ġtour": 3600,
      "ĠRich": 3601,
      "Ġign": 3602,
      "ĠDemocrats": 3603,
      "Ġpark": 3604,
      "amb": 3605,
      "Ġfan": 3606,
      "men": 3607,
      "Ġdifference": 3608,
      "Ġnature": 3609,
      "Ġdeg": 3610,
      "Ġcommand": 3611,
      "Ġdevice": 3612,
      "Ġhappy": 3613,
      "Ġmyself": 3614,
      "AD": 3615,
      "Ġmaybe": 3616,
      "Ġbeginning": 3617,
      "rief": 3618,
      "ĠSim": 3619,
      "ĠSuper": 3620,
      "Ġfailed": 3621,
      "Ġnom": 3622,
      "Ġbudget": 3623,
      "ivity": 3624,
      "Ġencour": 3625,
      "Ġcharacters": 3626,
      "Ġnuclear": 3627,
      "wood": 3628,
      "Ġcomputer": 3629,
      "chan": 3630,
      "Ġcopy": 3631,
      "Ġaim": 3632,
      "yan": 3633,
      "ĠMart": 3634,
      "Ġx": 3635,
      "ocked": 3636,
      "Ġcompared": 3637,
      "Ġtitle": 3638,
      "wise": 3639,
      "ĠEnglish": 3640,
      "ĠDay": 3641,
      "Ġwall": 3642,
      "lease": 3643,
      "Ġcentury": 3644,
      "Ġenfor": 3645,
      "Ġcollege": 3646,
      "Ġeyes": 3647,
      "Ġestim": 3648,
      "Ġleague": 3649,
      "Ġshown": 3650,
      "Ġstra": 3651,
      "ĠVal": 3652,
      "more": 3653,
      "ĠFrench": 3654,
      "Ġyes": 3655,
      "Ġpositive": 3656,
      "ource": 3657,
      "Ġbooks": 3658,
      "Ġpowerful": 3659,
      "AP": 3660,
      "Ġrefer": 3661,
      "Ġcontribut": 3662,
      "Ġbal": 3663,
      "enty": 3664,
      "Ġlimited": 3665,
      "Ġband": 3666,
      "Ġnecessary": 3667,
      "Ġsche": 3668,
      "ĠStar": 3669,
      "Ġcitizens": 3670,
      "Ġforced": 3671,
      "cient": 3672,
      "ufact": 3673,
      "Ġcandidate": 3674,
      "Ġdisp": 3675,
      "ĠHere": 3676,
      "Ġtrust": 3677,
      "Ġconference": 3678,
      "Ġarch": 3679,
      "aud": 3680,
      "ĠRober": 3681,
      "Ġlargest": 3682,
      "75": 3683,
      "Ġanalysis": 3684,
      "ĠSyria": 3685,
      "Ġspending": 3686,
      "orks": 3687,
      "aint": 3688,
      "igration": 3689,
      "Ġsal": 3690,
      "ĠOf": 3691,
      "Ġpresidential": 3692,
      "Ġaware": 3693,
      "44": 3694,
      "Ġschools": 3695,
      "Ġthrow": 3696,
      "Ġmeant": 3697,
      "Ġeventually": 3698,
      "Ġreligious": 3699,
      "Ġexecutive": 3700,
      "venue": 3701,
      "ĠTor": 3702,
      "ĠBen": 3703,
      "ĠNe": 3704,
      "âĢľWe": 3705,
      "Ġcorrect": 3706,
      "Ġphysical": 3707,
      "Ġfollowed": 3708,
      "Ġfamilies": 3709,
      "Ġilleg": 3710,
      "Ġstreng": 3711,
      "Ġfeature": 3712,
      "Ġcrowd": 3713,
      "ĠDis": 3714,
      "Ġmix": 3715,
      "Be": 3716,
      "Ġconfir": 3717,
      "Ġbott": 3718,
      "ĠWind": 3719,
      "Ġfirm": 3720,
      "Ġeasily": 3721,
      "Ġcool": 3722,
      "ares": 3723,
      "orney": 3724,
      "Ġautom": 3725,
      "ero": 3726,
      "My": 3727,
      "Ġallows": 3728,
      "ĠAir": 3729,
      "Ġpus": 3730,
      "ube": 3731,
      "Ġesc": 3732,
      "Ġgives": 3733,
      "Ġyourself": 3734,
      "Ġgrad": 3735,
      "Ġfeed": 3736,
      "Ġtreatment": 3737,
      "cul": 3738,
      "Ġactions": 3739,
      "ressed": 3740,
      "ID": 3741,
      "ken": 3742,
      "Ġdraft": 3743,
      "iring": 3744,
      "Ġdetail": 3745,
      "New": 3746,
      "Ġsusp": 3747,
      "Ġoverall": 3748,
      "etro": 3749,
      "ĠMex": 3750,
      "encies": 3751,
      "ĠBel": 3752,
      "Ġsmart": 3753,
      "Ġincome": 3754,
      "By": 3755,
      "Ġang": 3756,
      "Ġideas": 3757,
      "Ġappeared": 3758,
      "EC": 3759,
      "Ġcentral": 3760,
      "Ġpolitics": 3761,
      "Ġdisplay": 3762,
      "Ġsigned": 3763,
      "OM": 3764,
      "Ġweapons": 3765,
      "Ġanaly": 3766,
      "Ġhar": 3767,
      "Ġpsych": 3768,
      "Ġdecades": 3769,
      "bum": 3770,
      "Ġpromot": 3771,
      "Ġnice": 3772,
      "ET": 3773,
      "Ġdise": 3774,
      "\"The": 3775,
      "Ġfrequ": 3776,
      "Ġuses": 3777,
      "Ġsenior": 3778,
      "Ġcrime": 3779,
      "rs": 3780,
      "Advertisement": 3781,
      "Ġlif": 3782,
      "ĠBre": 3783,
      "craft": 3784,
      "ĠGovern": 3785,
      "Ġunique": 3786,
      "ĠInternational": 3787,
      "-time": 3788,
      "Ġcredit": 3789,
      "ĠJer": 3790,
      "Ġdoor": 3791,
      "Ġcrisis": 3792,
      "According": 3793,
      "Ġbenefits": 3794,
      "Ġaltern": 3795,
      "resh": 3796,
      "Ġdeveloped": 3797,
      "Ġmist": 3798,
      "Ġconflic": 3799,
      "uty": 3800,
      "riage": 3801,
      "Ġtruth": 3802,
      "band": 3803,
      "Ġnoted": 3804,
      "ĠCap": 3805,
      "Ġdrop": 3806,
      "ĠÂ£": 3807,
      "urance": 3808,
      "iable": 3809,
      "195": 3810,
      "Ġrelated": 3811,
      "Ġsales": 3812,
      "Ġgoals": 3813,
      "Ġbeaut": 3814,
      "49": 3815,
      "Ġindividuals": 3816,
      "48": 3817,
      "itely": 3818,
      "Ġcontinues": 3819,
      "ĠArab": 3820,
      "ĠSchool": 3821,
      "ĠAngel": 3822,
      "iny": 3823,
      "Ġrates": 3824,
      "ĠEU": 3825,
      "Ġlic": 3826,
      "inn": 3827,
      "Ġrap": 3828,
      "Ġcustomers": 3829,
      "Ġchallenge": 3830,
      "IA": 3831,
      "Ġsto": 3832,
      "Ġprojects": 3833,
      "onents": 3834,
      "ĠAustralia": 3835,
      "ĠEarth": 3836,
      "Ġcharge": 3837,
      "erved": 3838,
      "Ġpredict": 3839,
      "Ġapparent": 3840,
      "nown": 3841,
      "Is": 3842,
      "ĠPolice": 3843,
      "Ġintelligence": 3844,
      "Ġpeace": 3845,
      "change": 3846,
      "ĠUnion": 3847,
      "Ġpreviously": 3848,
      "Don": 3849,
      "Ġuns": 3850,
      ".C": 3851,
      "Ġfully": 3852,
      "Ġmeasure": 3853,
      "ĠChristian": 3854,
      "Ġlines": 3855,
      "ĠSmith": 3856,
      "Ġstraight": 3857,
      "ĠGermany": 3858,
      "Ġmanager": 3859,
      "board": 3860,
      ".)ĊĊ": 3861,
      "Ġadvant": 3862,
      "Ġbrother": 3863,
      "Ġlarger": 3864,
      "net": 3865,
      "Ġsuccessful": 3866,
      "Ġrule": 3867,
      "Ġexpand": 3868,
      "Ġhighly": 3869,
      "Ġclearly": 3870,
      "Ġreform": 3871,
      "oti": 3872,
      "ĠGeorge": 3873,
      "orter": 3874,
      "Ġseemed": 3875,
      "-C": 3876,
      "ĠFranc": 3877,
      "Pro": 3878,
      "ĠComp": 3879,
      "194": 3880,
      "Ġcriminal": 3881,
      "Ġemb": 3882,
      "55": 3883,
      "ki": 3884,
      "Ġprimary": 3885,
      "owers": 3886,
      "Un": 3887,
      "rated": 3888,
      "39": 3889,
      "osh": 3890,
      "attle": 3891,
      "ĠCr": 3892,
      "Ġnote": 3893,
      "iced": 3894,
      "Ġminor": 3895,
      "-ter": 3896,
      "ounds": 3897,
      "Ġtraff": 3898,
      "ean": 3899,
      "antly": 3900,
      "Ġspread": 3901,
      "Ġknowledge": 3902,
      "inated": 3903,
      "iance": 3904,
      "\"We": 3905,
      "Ġincident": 3906,
      "Ġattract": 3907,
      "ĠTom": 3908,
      "ĠFlor": 3909,
      "Ġresources": 3910,
      "Ġprograms": 3911,
      "while": 3912,
      "ategy": 3913,
      "ĠCouncil": 3914,
      "Ġreached": 3915,
      "Ġgreater": 3916,
      "Ġsave": 3917,
      "Ġweb": 3918,
      "Ġspir": 3919,
      "olic": 3920,
      "ĠBer": 3921,
      "Ġprem": 3922,
      "Ġkept": 3923,
      "Ġarm": 3924,
      "ĠHigh": 3925,
      "ota": 3926,
      "que": 3927,
      "de": 3928,
      "secut": 3929,
      "Ġemot": 3930,
      "Ġsend": 3931,
      "Ġfeet": 3932,
      "ĠAnt": 3933,
      "Ġstudies": 3934,
      "ĠInternet": 3935,
      "Ġfavorite": 3936,
      "Ġplaces": 3937,
      "Ġcolor": 3938,
      "ĠRec": 3939,
      "Some": 3940,
      "Ġmanufact": 3941,
      "sey": 3942,
      "Ġrare": 3943,
      "ĠBrown": 3944,
      "onent": 3945,
      "vere": 3946,
      "Ġshooting": 3947,
      "icit": 3948,
      "iders": 3949,
      "ĠHam": 3950,
      "Ġknows": 3951,
      "oday": 3952,
      "ĠDef": 3953,
      "ĠGeneral": 3954,
      "ocks": 3955,
      "Ġregular": 3956,
      "Ġrise": 3957,
      "lick": 3958,
      "ingly": 3959,
      "Ġliter": 3960,
      "roll": 3961,
      "levision": 3962,
      "Ġsources": 3963,
      "Ġfighting": 3964,
      "Ġlaun": 3965,
      "icago": 3966,
      "org": 3967,
      "ĠMac": 3968,
      "mar": 3969,
      "ville": 3970,
      "Ġactivity": 3971,
      "box": 3972,
      "Ġpun": 3973,
      "Ġowners": 3974,
      "Ġstatus": 3975,
      "Ġoptions": 3976,
      "Ġvoice": 3977,
      "EO": 3978,
      "Ġfine": 3979,
      "Ġcaused": 3980,
      "Ġnormal": 3981,
      "usion": 3982,
      "ING": 3983,
      "aith": 3984,
      "Ġclaimed": 3985,
      "Ġspend": 3986,
      "Ġorganiz": 3987,
      "Ġended": 3988,
      "Ġcities": 3989,
      "bon": 3990,
      "ado": 3991,
      "ĠRob": 3992,
      "ĠGold": 3993,
      "Ġenem": 3994,
      "ĠLa": 3995,
      "Ġcalling": 3996,
      "Ð¾": 3997,
      "iled": 3998,
      "Ġreflect": 3999,
      "ĠFrom": 4000,
      "ength": 4001,
      "Ġintegr": 4002,
      "64": 4003,
      "ĠEvery": 4004,
      "Ġpros": 4005,
      "mission": 4006,
      "ifying": 4007,
      "ĠUp": 4008,
      "ĠEngland": 4009,
      "Ġshut": 4010,
      "Ġresearchers": 4011,
      "ya": 4012,
      "Ġhaven": 4013,
      "Ġprices": 4014,
      "itness": 4015,
      "Ġfemale": 4016,
      "www": 4017,
      "Not": 4018,
      "oles": 4019,
      "Ġnames": 4020,
      "ĠMag": 4021,
      "Ġhappens": 4022,
      "rol": 4023,
      "Ġvirt": 4024,
      "Ġemployees": 4025,
      "âĢĿ,": 4026,
      "uman": 4027,
      "Ġtrou": 4028,
      "Ġadding": 4029,
      "Ġele": 4030,
      "mittee": 4031,
      "inger": 4032,
      "uana": 4033,
      "Ġsupposed": 4034,
      "Ġbasic": 4035,
      "Ġhospital": 4036,
      "Ġplant": 4037,
      "300": 4038,
      "Ġhttp": 4039,
      "Ġwait": 4040,
      "iverse": 4041,
      "Ġpolicies": 4042,
      "Ġprint": 4043,
      "Ġraised": 4044,
      "Ġjump": 4045,
      "Ġtraditional": 4046,
      "Ġalbum": 4047,
      "ica": 4048,
      "Ġabsolute": 4049,
      "Ġcharges": 4050,
      "Ġconcerns": 4051,
      "Ġslight": 4052,
      "Ġstyle": 4053,
      "Ġcreating": 4054,
      "Ġacqu": 4055,
      "Ġgrand": 4056,
      "Ġpatients": 4057,
      "Ġfunding": 4058,
      "ribution": 4059,
      "roid": 4060,
      "Ġauthorities": 4061,
      "Ġscen": 4062,
      "Ġfreedom": 4063,
      "Ġbeat": 4064,
      "Ġcommer": 4065,
      "Ġseeing": 4066,
      "Ġlik": 4067,
      ".âĢĻ": 4068,
      "Ġminister": 4069,
      "miss": 4070,
      "ĠScott": 4071,
      "ĠAP": 4072,
      "ram": 4073,
      "Ġimpl": 4074,
      "Ġcry": 4075,
      "Ġleaving": 4076,
      "Ġactual": 4077,
      "Ġmechan": 4078,
      "ĠBay": 4079,
      "Ġgreen": 4080,
      "Ġbeg": 4081,
      "65": 4082,
      "alse": 4083,
      "EL": 4084,
      "ĠFlorida": 4085,
      "ona": 4086,
      "Ġbehavior": 4087,
      "Ġgold": 4088,
      "Ġir": 4089,
      "rian": 4090,
      "Ġbirth": 4091,
      "Ġstation": 4092,
      "Ġpush": 4093,
      "ijuana": 4094,
      "Ġagreement": 4095,
      "Ġmer": 4096,
      "Ġoffered": 4097,
      "ĠMost": 4098,
      "Ġensure": 4099,
      "Here": 4100,
      "Ġweight": 4101,
      "Ġweekend": 4102,
      "Ġeth": 4103,
      "Ġrank": 4104,
      "tr": 4105,
      "ĠMo": 4106,
      "ĠHillary": 4107,
      "Ġvac": 4108,
      "itude": 4109,
      "Ġpropos": 4110,
      ".'": 4111,
      "Ġrevealed": 4112,
      "Ġwilling": 4113,
      "Ġposted": 4114,
      "Ġadop": 4115,
      "Ġvalues": 4116,
      "Ġdetermin": 4117,
      "earch": 4118,
      "Ar": 4119,
      "ĠWell": 4120,
      "acing": 4121,
      "Ġapplication": 4122,
      "see": 4123,
      "Ġmostly": 4124,
      "Ġestabl": 4125,
      "ĠSun": 4126,
      "dom": 4127,
      "ĠAccording": 4128,
      "aby": 4129,
      "pen": 4130,
      "soft": 4131,
      "47": 4132,
      "ĠLet": 4133,
      "OU": 4134,
      "ĠAlex": 4135,
      "Ġadult": 4136,
      "Ġpicture": 4137,
      "ĠReg": 4138,
      "Ġbrief": 4139,
      "ĠLaw": 4140,
      "Ġbelieved": 4141,
      "Ġstrategy": 4142,
      "Ġlearned": 4143,
      "Ġrecords": 4144,
      "istry": 4145,
      "Ġchoose": 4146,
      "ser": 4147,
      "cher": 4148,
      "SA": 4149,
      "ĠTrans": 4150,
      "Ġwonder": 4151,
      "Ġinstall": 4152,
      "Ġwhatever": 4153,
      "igned": 4154,
      "Ġqual": 4155,
      "Ġlawy": 4156,
      "Ġdire": 4157,
      "ttps": 4158,
      "Ġbenefit": 4159,
      "Ġmassive": 4160,
      "ĠFrance": 4161,
      "Ġcars": 4162,
      "Ġappl": 4163,
      "Ġmount": 4164,
      "ection": 4165,
      "ĠChicago": 4166,
      "Ġfat": 4167,
      "Ġstreet": 4168,
      "Ġfeeling": 4169,
      "Ġparties": 4170,
      "Ġwild": 4171,
      "Ġarrested": 4172,
      "Ġdevices": 4173,
      "ĠPeople": 4174,
      "IL": 4175,
      "Ġwhom": 4176,
      "Ġassault": 4177,
      "Ġwat": 4178,
      "Ġinfluence": 4179,
      "ĠPort": 4180,
      "Ex": 4181,
      "uild": 4182,
      "Ġenter": 4183,
      "Ġasking": 4184,
      "Ġlose": 4185,
      "ĠPhil": 4186,
      "Ġmission": 4187,
      "ĠOh": 4188,
      "Ġshowing": 4189,
      "ĠStud": 4190,
      "Ġtemper": 4191,
      "liament": 4192,
      "Ġborder": 4193,
      "Ġprovides": 4194,
      "ĠSecret": 4195,
      "-e": 4196,
      "ties": 4197,
      "Ġproduced": 4198,
      "Ġjudge": 4199,
      "Ġcritical": 4200,
      "Ġconfirmed": 4201,
      "ĠBush": 4202,
      "Ġoperations": 4203,
      "no": 4204,
      "Ġtend": 4205,
      "Ġimages": 4206,
      "Ġnegoti": 4207,
      "Ġdrink": 4208,
      "Ġeye": 4209,
      "ĠLou": 4210,
      "orial": 4211,
      "udd": 4212,
      "Ġcelebr": 4213,
      "Ġresidents": 4214,
      "ugg": 4215,
      "aked": 4216,
      "Ġruns": 4217,
      "Ġproduce": 4218,
      "Ġdistrict": 4219,
      "ĠHealth": 4220,
      "cription": 4221,
      "rog": 4222,
      "Ġdebt": 4223,
      "Ġteac": 4224,
      "However": 4225,
      "time": 4226,
      "Ġcru": 4227,
      "ĠWall": 4228,
      "Ġetc": 4229,
      "Ġopposition": 4230,
      "ĠMat": 4231,
      "-term": 4232,
      "estic": 4233,
      "rav": 4234,
      "ĠCommittee": 4235,
      "icial": 4236,
      "Ġbrand": 4237,
      "ront": 4238,
      "ĠBit": 4239,
      "ented": 4240,
      "Ġcore": 4241,
      "Ġpattern": 4242,
      "Ġsection": 4243,
      "Ġunc": 4244,
      "Ġdefend": 4245,
      "ags": 4246,
      "cell": 4247,
      "Ġindependent": 4248,
      "ĠKorea": 4249,
      "ĠWhy": 4250,
      "Ġhero": 4251,
      "ĠMod": 4252,
      "ĠPress": 4253,
      "Ġadvoc": 4254,
      "sp": 4255,
      "ocr": 4256,
      "Ġdollars": 4257,
      "Ġeffective": 4258,
      "Ġtick": 4259,
      "ĠCommission": 4260,
      "cience": 4261,
      "ae": 4262,
      "ĠPalest": 4263,
      "ords": 4264,
      "Ġsolution": 4265,
      "Ġinterested": 4266,
      "Ġdigital": 4267,
      "Ġvill": 4268,
      "ST": 4269,
      "mine": 4270,
      "BA": 4271,
      "Ġhighest": 4272,
      "Ġopening": 4273,
      "rial": 4274,
      "Ġworse": 4275,
      "Ġresponsible": 4276,
      "pri": 4277,
      "ste": 4278,
      "ĠMal": 4279,
      "Ġlearning": 4280,
      "ĠSam": 4281,
      "Ġoffers": 4282,
      "Ġtrial": 4283,
      "icians": 4284,
      "ĠGet": 4285,
      "ĠFrancis": 4286,
      "Ġreplace": 4287,
      "Ġagreed": 4288,
      "ĠOther": 4289,
      "Ġrestrict": 4290,
      "Ġmemory": 4291,
      "iation": 4292,
      "Ġdaily": 4293,
      "CC": 4294,
      "Ġinvestment": 4295,
      "ĠWestern": 4296,
      "Ġtrain": 4297,
      "ipe": 4298,
      "Ġ;": 4299,
      "Ġtypes": 4300,
      "Ġmur": 4301,
      "Ġoccas": 4302,
      "uries": 4303,
      "ĠBecause": 4304,
      "ĠLiber": 4305,
      "illing": 4306,
      "oly": 4307,
      "Ġtheory": 4308,
      "ĠJustice": 4309,
      "Ġmillions": 4310,
      "Ġbasis": 4311,
      "Ġchem": 4312,
      "rad": 4313,
      "Ġkick": 4314,
      "Ġmarriage": 4315,
      "ĠOffice": 4316,
      "Ġexplained": 4317,
      "ĠCup": 4318,
      "Ġchair": 4319,
      "Ġgenerally": 4320,
      "Ġtelevision": 4321,
      "Ġheavy": 4322,
      "ĠDel": 4323,
      "Ġproposed": 4324,
      "Ġder": 4325,
      "âĢľIt": 4326,
      "Ġmiles": 4327,
      "ĠOur": 4328,
      "ĠFound": 4329,
      "Ġopinion": 4330,
      "Get": 4331,
      "Ġdefe": 4332,
      "âĢ¢": 4333,
      "Ġbur": 4334,
      "Ġcondition": 4335,
      "ĠMicro": 4336,
      "aks": 4337,
      "oom": 4338,
      "-and": 4339,
      "ĠMike": 4340,
      "Ġonto": 4341,
      "Ġprotest": 4342,
      "Ġreject": 4343,
      "vest": 4344,
      "ĠNFL": 4345,
      "Ġmap": 4346,
      "Ġbecomes": 4347,
      "Ġachieve": 4348,
      "Ġpartners": 4349,
      "rig": 4350,
      "ĠMil": 4351,
      "Ġassociated": 4352,
      "Ġmale": 4353,
      "icip": 4354,
      "ĠJohnson": 4355,
      "Ġdestroy": 4356,
      "Ġload": 4357,
      "Ġassum": 4358,
      "Ġhundreds": 4359,
      "====": 4360,
      "azing": 4361,
      "Ġadvantage": 4362,
      "Ġopened": 4363,
      "Ġsurround": 4364,
      "coming": 4365,
      "mark": 4366,
      "Ġcoal": 4367,
      "ander": 4368,
      "Ġunderstanding": 4369,
      "well": 4370,
      "outhern": 4371,
      "ĠSecurity": 4372,
      "upp": 4373,
      "Ġobtain": 4374,
      "________": 4375,
      "ĠAdd": 4376,
      "Ġlimit": 4377,
      "odes": 4378,
      "Ġvs": 4379,
      "ĠTer": 4380,
      "Ġmanagement": 4381,
      "eline": 4382,
      "Ġship": 4383,
      "Ġice": 4384,
      "Ġsleep": 4385,
      "ĠÃ": 4386,
      "Ġborn": 4387,
      "46": 4388,
      "orthern": 4389,
      "bert": 4390,
      "wide": 4391,
      "Ġeasier": 4392,
      "âĢĿĊĊ": 4393,
      "Ġcontrovers": 4394,
      "known": 4395,
      "Ġphoto": 4396,
      "Ġlegislation": 4397,
      "Ġthus": 4398,
      "Ġinitial": 4399,
      "Ġaccused": 4400,
      "ĠWindows": 4401,
      "Ġbecoming": 4402,
      "Ġillegal": 4403,
      "ĠLab": 4404,
      "la": 4405,
      "witch": 4406,
      "ears": 4407,
      "Ġunlike": 4408,
      "Ġspecies": 4409,
      "Ġspl": 4410,
      "ĠAtt": 4411,
      "ĠBig": 4412,
      "AA": 4413,
      "GB": 4414,
      "Ġprofessional": 4415,
      "Ġelectric": 4416,
      "Ġcamera": 4417,
      "Ġjoin": 4418,
      "ĠGreat": 4419,
      "FC": 4420,
      "ĠMany": 4421,
      "Ġneighbor": 4422,
      "olf": 4423,
      "Ġframe": 4424,
      "Ġdouble": 4425,
      "ading": 4426,
      "ĠUk": 4427,
      "Ġharm": 4428,
      "lant": 4429,
      "Ġwealth": 4430,
      "Ġserved": 4431,
      "BS": 4432,
      "Ġrat": 4433,
      "Ġlocation": 4434,
      "Ġbelief": 4435,
      "Ġresist": 4436,
      "Ġnine": 4437,
      "Mr": 4438,
      "Ġserve": 4439,
      "Ġshared": 4440,
      "Ġstrik": 4441,
      "Ġnegative": 4442,
      "Ġextremely": 4443,
      "za": 4444,
      "Ġwinning": 4445,
      "Ġscientists": 4446,
      "Ġdocuments": 4447,
      "Ġbottom": 4448,
      "ĠArt": 4449,
      "Ġactive": 4450,
      "Ġmachine": 4451,
      "ortunately": 4452,
      "Ġbed": 4453,
      "level": 4454,
      "\"It": 4455,
      ",ĊĊ": 4456,
      "Ġpurpose": 4457,
      "Ġincred": 4458,
      "Ġvictims": 4459,
      "Ġsolid": 4460,
      "PS": 4461,
      "Ġaudience": 4462,
      "ĠIslamic": 4463,
      "Ġreduce": 4464,
      "iful": 4465,
      "rey": 4466,
      "\".": 4467,
      "Ġreturned": 4468,
      "42": 4469,
      "Ġdepartment": 4470,
      "irgin": 4471,
      "orrow": 4472,
      "Ġamb": 4473,
      "ih": 4474,
      "Ġmarijuana": 4475,
      "ĠHall": 4476,
      "ĠSanders": 4477,
      "ĠCommun": 4478,
      "lands": 4479,
      "ios": 4480,
      "Ġchurch": 4481,
      "ĠDist": 4482,
      "Ġran": 4483,
      "tered": 4484,
      "ĠYour": 4485,
      "Ġexisting": 4486,
      "istics": 4487,
      "Ġnotice": 4488,
      "Ġcommunities": 4489,
      "Ġexplain": 4490,
      "Ġvictory": 4491,
      "Ġbomb": 4492,
      "Ġleadership": 4493,
      "atically": 4494,
      "Ġdoubt": 4495,
      "OL": 4496,
      "Ġdie": 4497,
      "Ġcomfort": 4498,
      "Ġargument": 4499,
      "Ġteach": 4500,
      "Ġwatching": 4501,
      "ghan": 4502,
      "Ġfaith": 4503,
      "Ġinstance": 4504,
      "Ġputting": 4505,
      "Ġnotes": 4506,
      "Ġmobile": 4507,
      "Ġseparate": 4508,
      "ĠInstitute": 4509,
      "Ġmicro": 4510,
      "Ġhearing": 4511,
      "Ġinternet": 4512,
      "acity": 4513,
      "-re": 4514,
      "ĠMad": 4515,
      "Ġepisode": 4516,
      "ĠBank": 4517,
      "asy": 4518,
      "ãĤ": 4519,
      "ipped": 4520,
      "ĠCanadian": 4521,
      "Ġdefinitely": 4522,
      "ĠEv": 4523,
      "Ġfresh": 4524,
      "ĠPM": 4525,
      "ada": 4526,
      "Bl": 4527,
      "ĠAM": 4528,
      "omas": 4529,
      "iller": 4530,
      "ario": 4531,
      "Ġvehicle": 4532,
      "ĠInc": 4533,
      "Ġconservative": 4534,
      "Ġcommittee": 4535,
      "Ġappeal": 4536,
      "Ġviews": 4537,
      "193": 4538,
      "Ðµ": 4539,
      "Ġpurs": 4540,
      "ĠFin": 4541,
      "Ġcoverage": 4542,
      "Ġbackground": 4543,
      "ipp": 4544,
      "PA": 4545,
      "Ġfloor": 4546,
      "which": 4547,
      "resp": 4548,
      "works": 4549,
      "Ġlaunched": 4550,
      "Ġdirection": 4551,
      "ography": 4552,
      "iliar": 4553,
      "ĠSl": 4554,
      "Ġsupporters": 4555,
      "Ð°": 4556,
      "):": 4557,
      "Ġissued": 4558,
      "Ġdangerous": 4559,
      "inct": 4560,
      "zen": 4561,
      "Ġtrend": 4562,
      "itt": 4563,
      "Ġcompetition": 4564,
      "Ġradio": 4565,
      "Ġnorth": 4566,
      "\".ĊĊ": 4567,
      "Ġsun": 4568,
      "Ġmax": 4569,
      "EM": 4570,
      "Ġdrugs": 4571,
      "Ġsuggested": 4572,
      "Ġsites": 4573,
      "andom": 4574,
      "ĠOver": 4575,
      "Ġlabor": 4576,
      "Ġstructure": 4577,
      "ĠLike": 4578,
      "âĢĿ.": 4579,
      "Ġspoke": 4580,
      "Ġcards": 4581,
      "Ġsett": 4582,
      "ĠCarol": 4583,
      "Ġrepeated": 4584,
      "Ġitems": 4585,
      "Ġdecade": 4586,
      "Ġtraffic": 4587,
      "going": 4588,
      "Ġcommercial": 4589,
      "Ġnovel": 4590,
      "ĠDirect": 4591,
      "oman": 4592,
      "vention": 4593,
      "Ġstated": 4594,
      "ĠGame": 4595,
      "Ġfalse": 4596,
      "gency": 4597,
      "ĠFox": 4598,
      "Ġworst": 4599,
      "Ġcontain": 4600,
      "ctors": 4601,
      "Ġrefere": 4602,
      "ĠChurch": 4603,
      "rate": 4604,
      "Ġclosed": 4605,
      "Image": 4606,
      "anted": 4607,
      "Ġcharged": 4608,
      "ĠSince": 4609,
      "ribute": 4610,
      "Ġtask": 4611,
      "ĠFBI": 4612,
      "Ġtransfer": 4613,
      "Ġdisease": 4614,
      "ampionship": 4615,
      "Ġsmaller": 4616,
      "Ġhus": 4617,
      "Ġdriver": 4618,
      "Ġreact": 4619,
      "rick": 4620,
      "Ġnor": 4621,
      "Cl": 4622,
      "Ġded": 4623,
      "Ġrestaur": 4624,
      "ĠBritain": 4625,
      "Ġdaughter": 4626,
      "NA": 4627,
      "bing": 4628,
      "how": 4629,
      "Ġdriving": 4630,
      "Ġtelling": 4631,
      "semb": 4632,
      "Ġentirely": 4633,
      "ĠLos": 4634,
      "Ġdiscovered": 4635,
      "Ġhack": 4636,
      "ference": 4637,
      "Ġplays": 4638,
      "ĠUN": 4639,
      "Ġtools": 4640,
      "Ġcash": 4641,
      "Ġsurface": 4642,
      "ĠPri": 4643,
      "ĠWil": 4644,
      "hem": 4645,
      "Con": 4646,
      "Ġexperiment": 4647,
      "ript": 4648,
      "Ġgay": 4649,
      "Ġconcerned": 4650,
      "akistan": 4651,
      "ait": 4652,
      "Ġsupported": 4653,
      "Ġexerc": 4654,
      "Ġanimals": 4655,
      "ĠQue": 4656,
      "Ġtransport": 4657,
      "Ġaspect": 4658,
      ".org": 4659,
      "iling": 4660,
      "Ġcompar": 4661,
      "Ġfinding": 4662,
      "ulated": 4663,
      "ĠIsraeli": 4664,
      "ady": 4665,
      "ulf": 4666,
      "Ġolder": 4667,
      "Ġcateg": 4668,
      "overy": 4669,
      "azon": 4670,
      "Ġcandidates": 4671,
      "oyal": 4672,
      "ĠChris": 4673,
      "ĠJones": 4674,
      "ici": 4675,
      "Ġstrength": 4676,
      "Ġfarm": 4677,
      "Ġrequires": 4678,
      "Ġplease": 4679,
      "andon": 4680,
      "Ġbusinesses": 4681,
      "Ġwel": 4682,
      "annel": 4683,
      "Ġcontext": 4684,
      "Ġactivities": 4685,
      "tery": 4686,
      "phone": 4687,
      "ibrary": 4688,
      "Ġcaught": 4689,
      "Ġlargely": 4690,
      "Ġtesting": 4691,
      "Ġannual": 4692,
      "night": 4693,
      "ĠAre": 4694,
      "ĠUkrain": 4695,
      "icy": 4696,
      "Ġconsequ": 4697,
      "Ġallowing": 4698,
      "NN": 4699,
      "Ġfuel": 4700,
      "ĠSup": 4701,
      "lor": 4702,
      "ossible": 4703,
      "izes": 4704,
      "Ġraise": 4705,
      "Ġblue": 4706,
      "Ġinsurance": 4707,
      ".g": 4708,
      "41": 4709,
      "Ġmurder": 4710,
      "ĠKen": 4711,
      "Ġstock": 4712,
      "CH": 4713,
      "ĠRobert": 4714,
      "Ġstrateg": 4715,
      "Ġgeneration": 4716,
      "arant": 4717,
      "ĠTy": 4718,
      "ception": 4719,
      "-P": 4720,
      "kins": 4721,
      "Ġconcern": 4722,
      "Ġge": 4723,
      "ĠTre": 4724,
      "ros": 4725,
      "Ġbelieves": 4726,
      "Ġtruly": 4727,
      "ius": 4728,
      "Ġafford": 4729,
      "ĠAc": 4730,
      "Ġaccur": 4731,
      "rim": 4732,
      "Ġdecisions": 4733,
      "âĢĶâĢĶ": 4734,
      "Ġphil": 4735,
      "Ġconstruction": 4736,
      "osure": 4737,
      "Ġjustice": 4738,
      "ĠMer": 4739,
      "itable": 4740,
      "Ġhighlight": 4741,
      "Ġwitness": 4742,
      "ava": 4743,
      "Ġholding": 4744,
      "ĠJewish": 4745,
      "Le": 4746,
      "ĠGree": 4747,
      "ĠMiss": 4748,
      "igrants": 4749,
      "Ġguess": 4750,
      "Ġpresence": 4751,
      "anging": 4752,
      "Ġunit": 4753,
      "95": 4754,
      "Ġattend": 4755,
      "-th": 4756,
      "400": 4757,
      "ĠVer": 4758,
      "Ġscale": 4759,
      "âĢĺ": 4760,
      "Ġplanning": 4761,
      "ĠSil": 4762,
      "olly": 4763,
      "cknow": 4764,
      "ĠAssociation": 4765,
      "Ġrefuge": 4766,
      "Ġtim": 4767,
      "Ġsan": 4768,
      "ĠAfrican": 4769,
      "Ġrough": 4770,
      "pective": 4771,
      "ĠAfrica": 4772,
      "Ġplaced": 4773,
      "Ġtells": 4774,
      "ĠPC": 4775,
      "Ġlength": 4776,
      "ĠGOP": 4777,
      "ĠJim": 4778,
      "Ġestablish": 4779,
      "SP": 4780,
      "Ġmentioned": 4781,
      "Ġsequ": 4782,
      "ĠAfghan": 4783,
      "ancy": 4784,
      "Ġspokesman": 4785,
      "Ġwaiting": 4786,
      "Ġjoined": 4787,
      "Ġcatch": 4788,
      "rd": 4789,
      "ĠPre": 4790,
      "Ġkid": 4791,
      "Ġconflict": 4792,
      "Ġhasn": 4793,
      "mm": 4794,
      "ocracy": 4795,
      "Ġmissing": 4796,
      "Ġiniti": 4797,
      "Ġdeliver": 4798,
      "More": 4799,
      "Ġabuse": 4800,
      "nel": 4801,
      "Ġinjury": 4802,
      "Ġrecommend": 4803,
      "-pro": 4804,
      "ĠAngeles": 4805,
      "ĠKh": 4806,
      "Ġinterests": 4807,
      "Ġintroduced": 4808,
      "Ġupdate": 4809,
      "Ġenforcement": 4810,
      "Ġproviding": 4811,
      "01": 4812,
      "icon": 4813,
      "isation": 4814,
      "Ġsports": 4815,
      "Ġestablished": 4816,
      "ĠFrank": 4817,
      "Ġoccup": 4818,
      "Ġeat": 4819,
      "Ġremoved": 4820,
      "Ġcells": 4821,
      "ĠYes": 4822,
      "ĠInstead": 4823,
      "Ġconversation": 4824,
      "Ġbanks": 4825,
      "Ġcancer": 4826,
      "vant": 4827,
      "house": 4828,
      "Ġdiscussion": 4829,
      "Ġstopped": 4830,
      "Ġfant": 4831,
      "##": 4832,
      "cks": 4833,
      "ĠFore": 4834,
      "Ġuseful": 4835,
      "itz": 4836,
      "Ġhomes": 4837,
      "Ġnewsp": 4838,
      "azine": 4839,
      "Ġoffensive": 4840,
      "Ġassess": 4841,
      "Ġsouth": 4842,
      "ĠJeff": 4843,
      "Ġdownload": 4844,
      "ronic": 4845,
      "DA": 4846,
      "ĠStep": 4847,
      "bour": 4848,
      "oms": 4849,
      "ĠPalestin": 4850,
      "ula": 4851,
      "Ġobvious": 4852,
      "Ġfourth": 4853,
      "what": 4854,
      "oted": 4855,
      "!!": 4856,
      "Ġcook": 4857,
      "kin": 4858,
      "Ġmodels": 4859,
      "ĠCEO": 4860,
      "Ġbul": 4861,
      "Ġhousing": 4862,
      "Ġtransl": 4863,
      "onto": 4864,
      "iter": 4865,
      "lig": 4866,
      "Ġmeasures": 4867,
      "Ġstick": 4868,
      "43": 4869,
      "ãĥ": 4870,
      "Our": 4871,
      "ĠMicrosoft": 4872,
      "-the": 4873,
      "umn": 4874,
      "ications": 4875,
      "formation": 4876,
      "anda": 4877,
      "Ġgirls": 4878,
      "owl": 4879,
      "Ġoperation": 4880,
      "ĠLeg": 4881,
      "ĠTHE": 4882,
      "Ġsetting": 4883,
      "inter": 4884,
      "Ġmanaged": 4885,
      "Ġfiles": 4886,
      "Ġidentified": 4887,
      "ĠConst": 4888,
      "ĠMP": 4889,
      "Ġhair": 4890,
      "ĠJud": 4891,
      "Ġgraph": 4892,
      "Ġfocused": 4893,
      "ĠGroup": 4894,
      "place": 4895,
      "Ġappropri": 4896,
      "These": 4897,
      "Ġfinished": 4898,
      "Ġarrived": 4899,
      "Ġprefer": 4900,
      "Ġspirit": 4901,
      "Ġskills": 4902,
      "Ġearth": 4903,
      "Ġfigures": 4904,
      "Ġveter": 4905,
      "ulate": 4906,
      "ĠTim": 4907,
      "****": 4908,
      "ĠVirgin": 4909,
      "Ġacknow": 4910,
      "Ġconclud": 4911,
      "ĠJapanese": 4912,
      "ĠSal": 4913,
      "ĠProf": 4914,
      "Ġcommitted": 4915,
      "Ġtherefore": 4916,
      "agn": 4917,
      "Ġkeeping": 4918,
      "Ġfunds": 4919,
      "Ġexclus": 4920,
      "ĠRock": 4921,
      "ĠLouis": 4922,
      "ĠPakistan": 4923,
      "apped": 4924,
      "Ġidentity": 4925,
      "ĠMexico": 4926,
      "Ġtough": 4927,
      "-of": 4928,
      "outs": 4929,
      "Ġexchange": 4930,
      "Ġfeels": 4931,
      "Ġotherwise": 4932,
      "Ġpartner": 4933,
      "but": 4934,
      "ĠSupreme": 4935,
      "Des": 4936,
      "Ġtrip": 4937,
      "ka": 4938,
      "ication": 4939,
      "RA": 4940,
      "Ġrelatively": 4941,
      "eah": 4942,
      "-B": 4943,
      "enses": 4944,
      "Ġowner": 4945,
      "âĢĿ.ĊĊ": 4946,
      "ĠMet": 4947,
      "Ġsurvey": 4948,
      "Ġdetect": 4949,
      "igan": 4950,
      "ĠInter": 4951,
      "itutional": 4952,
      "ĠAndroid": 4953,
      "Ġsteps": 4954,
      "amm": 4955,
      "Ã¡": 4956,
      "equ": 4957,
      "ĠRyan": 4958,
      "Ġslightly": 4959,
      "Ġclick": 4960,
      "Ġconnection": 4961,
      "ocal": 4962,
      "Ġtweet": 4963,
      "ĠArmy": 4964,
      "ĠMont": 4965,
      "dden": 4966,
      "Ġphotos": 4967,
      "ĠRichard": 4968,
      "Ġhusband": 4969,
      "Ġdepend": 4970,
      "uct": 4971,
      "Ġweak": 4972,
      "-D": 4973,
      "Ġprotection": 4974,
      "Ġgender": 4975,
      "Ġdefensive": 4976,
      "Ġmere": 4977,
      "ĠIr": 4978,
      "Ġelements": 4979,
      "isf": 4980,
      "icide": 4981,
      "rency": 4982,
      "Trump": 4983,
      "verse": 4984,
      "ighter": 4985,
      "Ġstrike": 4986,
      "Ġcircum": 4987,
      "Ġgain": 4988,
      "Ġcorner": 4989,
      "Ġkilling": 4990,
      "-T": 4991,
      "acks": 4992,
      "Ġcollection": 4993,
      "ĠGovernment": 4994,
      "-sh": 4995,
      "ucky": 4996,
      "Ġfle": 4997,
      "real": 4998,
      "Ġroll": 4999,
      "Ġsuggests": 5000,
      "ancing": 5001,
      "Go": 5002,
      "Ġsust": 5003,
      "Ġaggress": 5004,
      "ĠMartin": 5005,
      "Ġdat": 5006,
      "Ġcommission": 5007,
      "onym": 5008,
      "Ġsupply": 5009,
      "Ġtaxes": 5010,
      "hens": 5011,
      "gar": 5012,
      "ania": 5013,
      "hi": 5014,
      "vis": 5015,
      "ĠAlthough": 5016,
      "odies": 5017,
      "ils": 5018,
      "Ġbigger": 5019,
      "ano": 5020,
      "etic": 5021,
      "ĠNor": 5022,
      "ĠSur": 5023,
      "TC": 5024,
      "Ġfailure": 5025,
      "Ġremind": 5026,
      "Ġmental": 5027,
      "Ġsides": 5028,
      "ubs": 5029,
      "Ġamazing": 5030,
      "Ġplanet": 5031,
      "rees": 5032,
      "ga": 5033,
      "Ġspeaking": 5034,
      "Photo": 5035,
      "Ġhappening": 5036,
      "ĠDec": 5037,
      "Ġstarts": 5038,
      "Why": 5039,
      "Ġorganizations": 5040,
      "uate": 5041,
      "ĠJoe": 5042,
      "uke": 5043,
      "ĠOut": 5044,
      "Ġnone": 5045,
      "Ġplanned": 5046,
      "Ġsudden": 5047,
      "Ġguard": 5048,
      "ĠTeam": 5049,
      "gers": 5050,
      "ĠGood": 5051,
      "Ġfamiliar": 5052,
      "Ġwindow": 5053,
      "adium": 5054,
      "Ġtalks": 5055,
      "ĠJose": 5056,
      "Ġspect": 5057,
      "Ġcrew": 5058,
      "Ġwish": 5059,
      "Ġhate": 5060,
      "Ġaward": 5061,
      "awn": 5062,
      "olit": 5063,
      "Ġthanks": 5064,
      "Ġpit": 5065,
      "Ġstruct": 5066,
      "Ġdecide": 5067,
      "ola": 5068,
      "ĠPet": 5069,
      "gypt": 5070,
      "150": 5071,
      "Pl": 5072,
      "idering": 5073,
      "Ġimmigration": 5074,
      "Ġarmy": 5075,
      "Ġcarried": 5076,
      "Ġscientific": 5077,
      "Ġseconds": 5078,
      "ynam": 5079,
      "Ġregist": 5080,
      "Ġappoint": 5081,
      "Ġpet": 5082,
      "05": 5083,
      "eless": 5084,
      "Last": 5085,
      "Ġstanding": 5086,
      "ĠFire": 5087,
      "Ġhelping": 5088,
      "agues": 5089,
      "ĠMary": 5090,
      "Ġscript": 5091,
      "ĠBern": 5092,
      "ĠWeb": 5093,
      "ĠCollege": 5094,
      "uters": 5095,
      "ĠTheir": 5096,
      "Ġbeer": 5097,
      "Ġrevolution": 5098,
      "oston": 5099,
      "Ġmulti": 5100,
      "ĠThomas": 5101,
      "mas": 5102,
      "\":": 5103,
      "ĠResearch": 5104,
      "Ġfiled": 5105,
      "Ġenvironmental": 5106,
      "Ġdomestic": 5107,
      "-a": 5108,
      "ĠSecretary": 5109,
      "Ġstandards": 5110,
      "arsh": 5111,
      "ocol": 5112,
      "imal": 5113,
      "Ġque": 5114,
      "ĠAlso": 5115,
      "?\"": 5116,
      "Ġvariety": 5117,
      "Ġmarkets": 5118,
      "Ġphilos": 5119,
      "hedul": 5120,
      "Ġsch": 5121,
      "192": 5122,
      "erous": 5123,
      "Ġturns": 5124,
      "Ġimpossible": 5125,
      "ĠAtlant": 5126,
      "Ġpair": 5127,
      "Ġaccounts": 5128,
      "Ġvotes": 5129,
      "Ġdegree": 5130,
      "Ġdropped": 5131,
      "Ġvul": 5132,
      "85": 5133,
      "ĠUs": 5134,
      "Ġacadem": 5135,
      "aven": 5136,
      "Ġterrit": 5137,
      "Ġneighborhood": 5138,
      "iams": 5139,
      "Ġinteract": 5140,
      "66": 5141,
      "Ġcold": 5142,
      "Ġpossibly": 5143,
      "ĠSyrian": 5144,
      "Ġappre": 5145,
      "Ġoperating": 5146,
      "Ġbalance": 5147,
      "Ġprofessor": 5148,
      "iser": 5149,
      "Ġtack": 5150,
      "ĠService": 5151,
      "aren": 5152,
      "HL": 5153,
      "-F": 5154,
      "Ġalternative": 5155,
      "illa": 5156,
      "Ġtests": 5157,
      "Read": 5158,
      "Ġworry": 5159,
      "Ġhonest": 5160,
      "Ġserver": 5161,
      "Ġcuts": 5162,
      "ader": 5163,
      "Ġincreasingly": 5164,
      "Ġunion": 5165,
      "IM": 5166,
      "Ġrich": 5167,
      "arks": 5168,
      "part": 5169,
      "pm": 5170,
      "cious": 5171,
      "Ġfellow": 5172,
      "Ġprinc": 5173,
      "ruit": 5174,
      "Ġlived": 5175,
      "Ġlosing": 5176,
      "ĠBur": 5177,
      "Ġchanging": 5178,
      "itect": 5179,
      "Ġapply": 5180,
      "Ġapparently": 5181,
      "och": 5182,
      "ayer": 5183,
      "Ġsettle": 5184,
      "ĠFoundation": 5185,
      "rastructure": 5186,
      "ĠTwo": 5187,
      "Ġunivers": 5188,
      "Ġdevelopers": 5189,
      "Ġultimately": 5190,
      "icted": 5191,
      "Ġhumans": 5192,
      "Ġagencies": 5193,
      "stream": 5194,
      "ores": 5195,
      "Ġsounds": 5196,
      "stein": 5197,
      "Ġtwice": 5198,
      "Ġreligion": 5199,
      "ĠTime": 5200,
      "gn": 5201,
      "with": 5202,
      "ĠPrime": 5203,
      "ĠImages": 5204,
      "Ġcolle": 5205,
      "Ġsea": 5206,
      "ĠLast": 5207,
      "aded": 5208,
      "ashed": 5209,
      "Ġabsolutely": 5210,
      "=\"": 5211,
      "Ġath": 5212,
      "ĠMos": 5213,
      "Ġsoldiers": 5214,
      "ansion": 5215,
      "ĠDen": 5216,
      "Ġ]": 5217,
      "Ġcloser": 5218,
      "Ġinnov": 5219,
      "Ġunits": 5220,
      "-day": 5221,
      "From": 5222,
      "Ġschedul": 5223,
      "Ð¸": 5224,
      "Ġhealthy": 5225,
      "Ġauthority": 5226,
      "Ġbeautiful": 5227,
      "Ġfundament": 5228,
      "Ġmut": 5229,
      "Ġpossibility": 5230,
      "Ġequip": 5231,
      "Ġpaying": 5232,
      "roud": 5233,
      "ĠCarolina": 5234,
      "iot": 5235,
      "obby": 5236,
      "Ġdeveloping": 5237,
      "Ġexpensive": 5238,
      "Ġyards": 5239,
      "Ġflight": 5240,
      ".t": 5241,
      "Ġcorporate": 5242,
      "Ġvast": 5243,
      "Ġwriter": 5244,
      "aine": 5245,
      "Ġskin": 5246,
      "Ġapart": 5247,
      "Ġlands": 5248,
      "ÃĤ": 5249,
      "lo": 5250,
      "IV": 5251,
      "Ġregarding": 5252,
      "coh": 5253,
      "ĠCentral": 5254,
      "Ġadjust": 5255,
      "alls": 5256,
      "Ġseeking": 5257,
      "Ġdeploy": 5258,
      "Ġexperts": 5259,
      "ĠPeter": 5260,
      "Of": 5261,
      "ĠST": 5262,
      "Ġimagine": 5263,
      "ĠJes": 5264,
      "related": 5265,
      "isted": 5266,
      "ĠLat": 5267,
      "ĠUnder": 5268,
      "Ġsolar": 5269,
      "uts": 5270,
      "makers": 5271,
      "Ġapplications": 5272,
      "Ġtast": 5273,
      "ND": 5274,
      "apers": 5275,
      "Ġsitting": 5276,
      "Ġanimal": 5277,
      "Ġvision": 5278,
      "ĠDistrict": 5279,
      "Ġinternal": 5280,
      "atures": 5281,
      "Ġcapacity": 5282,
      "ologies": 5283,
      "ĠJon": 5284,
      "ĠToronto": 5285,
      "ĠFrancisco": 5286,
      "Ġcovered": 5287,
      "Ġpil": 5288,
      "Ġheat": 5289,
      "under": 5290,
      "osen": 5291,
      "Ġgar": 5292,
      "IP": 5293,
      "Ġarms": 5294,
      "ym": 5295,
      "Ġunless": 5296,
      "ĠUSA": 5297,
      "Even": 5298,
      "ION": 5299,
      "Ġresponsibility": 5300,
      "Ġtrail": 5301,
      "Ġelections": 5302,
      "ĠAri": 5303,
      "-R": 5304,
      "Ġerror": 5305,
      "ĠMiddle": 5306,
      "LE": 5307,
      "ĠPlan": 5308,
      "bre": 5309,
      "Ġuniversity": 5310,
      "oving": 5311,
      "57": 5312,
      "202": 5313,
      "ĠBitcoin": 5314,
      "Ġfol": 5315,
      "Ġfamous": 5316,
      "Ġpresented": 5317,
      "Ġforms": 5318,
      "enced": 5319,
      "ĠAmazon": 5320,
      "uzz": 5321,
      "191": 5322,
      "ĠCamp": 5323,
      "idden": 5324,
      "Ġearn": 5325,
      "Ġsurprise": 5326,
      "Ġguarant": 5327,
      "Ġfif": 5328,
      "ias": 5329,
      "Ġattorney": 5330,
      "Ġconvention": 5331,
      "Ġodd": 5332,
      "uster": 5333,
      "ĠSol": 5334,
      "uration": 5335,
      "Just": 5336,
      "Ġsymb": 5337,
      "ortion": 5338,
      "ĠEgypt": 5339,
      "rible": 5340,
      "Ġtight": 5341,
      "ÑĤ": 5342,
      "Ġrid": 5343,
      "-on": 5344,
      "ini": 5345,
      "Ġbroken": 5346,
      "ĠPut": 5347,
      "road": 5348,
      "Ġteen": 5349,
      "Ġhelps": 5350,
      "Ġintended": 5351,
      "do": 5352,
      "lets": 5353,
      "Ġinstit": 5354,
      "----------------": 5355,
      "56": 5356,
      "Ġvehicles": 5357,
      "porary": 5358,
      "Ġestimated": 5359,
      "ĠJo": 5360,
      "Ġflow": 5361,
      "ressive": 5362,
      "ĠPublic": 5363,
      "Ġclim": 5364,
      "Ġstreets": 5365,
      "ĠBoston": 5366,
      "Ġoccurred": 5367,
      "Ġshall": 5368,
      "Ġconsult": 5369,
      "Ġdetermine": 5370,
      "Let": 5371,
      "Ġdomin": 5372,
      "Ġexpert": 5373,
      "Ġton": 5374,
      "Ġpieces": 5375,
      "Ġhyp": 5376,
      "ĠThose": 5377,
      "Ġsport": 5378,
      "den": 5379,
      "Ġfired": 5380,
      "anche": 5381,
      "Up": 5382,
      "Ġtroops": 5383,
      "ĠGal": 5384,
      "OW": 5385,
      "Ġlocated": 5386,
      "useum": 5387,
      "acked": 5388,
      "terday": 5389,
      "ĠFe": 5390,
      "ĠChief": 5391,
      "Ġprove": 5392,
      "ĠMur": 5393,
      "Ãĥ": 5394,
      "Ġrapid": 5395,
      "oty": 5396,
      "orage": 5397,
      "Ġprepared": 5398,
      "ENT": 5399,
      "Ġstars": 5400,
      "Ġscr": 5401,
      "Ġspecifically": 5402,
      "ĠCath": 5403,
      "Ġbringing": 5404,
      "Ġpotentially": 5405,
      "point": 5406,
      "Ġequal": 5407,
      "Ġnar": 5408,
      "Ġinsp": 5409,
      "Ġconclus": 5410,
      "Ġsector": 5411,
      "eder": 5412,
      "59": 5413,
      "Ġfaster": 5414,
      "Ġgovernments": 5415,
      "Ġstress": 5416,
      "ĠOnce": 5417,
      "Ġplenty": 5418,
      "Ġboost": 5419,
      "Ġrandom": 5420,
      "ĠMass": 5421,
      "ĠJournal": 5422,
      "58": 5423,
      "Ġvulner": 5424,
      "ĠSocial": 5425,
      "Ġselling": 5426,
      "ĠProt": 5427,
      "phas": 5428,
      "Ġequipment": 5429,
      "fe": 5430,
      "Ġbreat": 5431,
      "Ġbaby": 5432,
      "Ġseasons": 5433,
      "Ġproposal": 5434,
      "Ġheav": 5435,
      "Ġcouncil": 5436,
      "ĠAny": 5437,
      "Ġjail": 5438,
      "ĠVirginia": 5439,
      "Ġruling": 5440,
      "inent": 5441,
      "ours": 5442,
      "endment": 5443,
      "Ġrefused": 5444,
      "ĠParis": 5445,
      "anish": 5446,
      "cean": 5447,
      "Ġfactors": 5448,
      "ĠSpr": 5449,
      "Ġinfrastructure": 5450,
      "Ġremove": 5451,
      "Ġdin": 5452,
      "Ġera": 5453,
      "Ġ=>": 5454,
      "Ġoffering": 5455,
      "Ġsecure": 5456,
      "Ġbrow": 5457,
      "ĠCur": 5458,
      "77": 5459,
      "Ġbroke": 5460,
      "Ġweapon": 5461,
      "Ġprosecut": 5462,
      "class": 5463,
      "Ġdram": 5464,
      "Ġclin": 5465,
      "Ġexpressed": 5466,
      "Ġvoted": 5467,
      "Ġclot": 5468,
      "ht": 5469,
      "ĠGuard": 5470,
      "Ġchallenges": 5471,
      "ĠRub": 5472,
      "Every": 5473,
      "ĠFederal": 5474,
      "Ġconducted": 5475,
      "Ġmethods": 5476,
      "vey": 5477,
      "fit": 5478,
      "noon": 5479,
      "ĠSant": 5480,
      "isher": 5481,
      "ipping": 5482,
      "ureau": 5483,
      "Ġcombat": 5484,
      "ĠRiver": 5485,
      "Ġelected": 5486,
      "Ġcarbon": 5487,
      "ĠIsland": 5488,
      "Ġtourn": 5489,
      "Ġpointed": 5490,
      "Ġpositions": 5491,
      "ĠMedic": 5492,
      "TH": 5493,
      ",'": 5494,
      "ĠPlease": 5495,
      "Ġremained": 5496,
      "Ġprime": 5497,
      "Ġtrig": 5498,
      "ocking": 5499,
      "ĠLee": 5500,
      "Do": 5501,
      "Ġcultural": 5502,
      "rie": 5503,
      "Ġretail": 5504,
      "ĠAustralian": 5505,
      "ĠMel": 5506,
      "Ġoriginally": 5507,
      "ĠOpen": 5508,
      "yr": 5509,
      "ĠWho": 5510,
      "52": 5511,
      "onom": 5512,
      "ĠCru": 5513,
      "IG": 5514,
      "cel": 5515,
      "Ġsigns": 5516,
      "ashion": 5517,
      "Ġmaster": 5518,
      "Ġfinish": 5519,
      "Ġcriticism": 5520,
      "Ġweren": 5521,
      "lyn": 5522,
      "TM": 5523,
      "edia": 5524,
      "Ġshape": 5525,
      "-ch": 5526,
      "Ġpercentage": 5527,
      "Ġgreatest": 5528,
      "olved": 5529,
      "\\x": 5530,
      "Ġsignificantly": 5531,
      "Ġsale": 5532,
      "Ġthank": 5533,
      "Ġappearance": 5534,
      "Ġvoting": 5535,
      "Ġfacing": 5536,
      "ĠDuring": 5537,
      "Ġyouth": 5538,
      "ĠWilliams": 5539,
      "Ġvir": 5540,
      "Ġinvolve": 5541,
      "ĠStr": 5542,
      "Ġaffected": 5543,
      "ĠSing": 5544,
      "lymp": 5545,
      "Ġstret": 5546,
      "Ġtele": 5547,
      "Ġdetermined": 5548,
      "Ġarr": 5549,
      "standing": 5550,
      "Ġreduced": 5551,
      "Ġregime": 5552,
      "Ġchemical": 5553,
      "Ab": 5554,
      "rier": 5555,
      "Ġwood": 5556,
      "()": 5557,
      "Ġbought": 5558,
      "ĠRo": 5559,
      "ĠSaud": 5560,
      "Ġherself": 5561,
      "ĠRem": 5562,
      "Sc": 5563,
      "Ġindeed": 5564,
      "Ġmode": 5565,
      "Ġdream": 5566,
      "First": 5567,
      "ey": 5568,
      "Ġobviously": 5569,
      "Ġminimum": 5570,
      "Ġgrew": 5571,
      "Ġmarg": 5572,
      "ĠForce": 5573,
      "ĠBoth": 5574,
      "ĠColor": 5575,
      "reens": 5576,
      "Ġremaining": 5577,
      "Ġthr": 5578,
      "DP": 5579,
      "51": 5580,
      "ĠPhoto": 5581,
      "Ġhandle": 5582,
      "Ġhurt": 5583,
      "Ġhun": 5584,
      "Ġcontrast": 5585,
      "uy": 5586,
      "aling": 5587,
      "Ġrent": 5588,
      "ordin": 5589,
      "Ġpoliticians": 5590,
      "Ġargued": 5591,
      "ighters": 5592,
      "Ġcas": 5593,
      "Ġsupporting": 5594,
      "-n": 5595,
      "Ġrecorded": 5596,
      "ĠSteve": 5597,
      "Ġplus": 5598,
      "Ġleads": 5599,
      "Ġrevenue": 5600,
      "Ġsurprising": 5601,
      "ĠFree": 5602,
      "Ġpurchase": 5603,
      "Ġswitch": 5604,
      "Ġappreci": 5605,
      "Ġwearing": 5606,
      "Ġexcited": 5607,
      "Ġtact": 5608,
      "Ġbound": 5609,
      "Ġconsidering": 5610,
      "Ġvideos": 5611,
      "Ġfilms": 5612,
      "Ġminute": 5613,
      "Ġexplos": 5614,
      "arp": 5615,
      "gment": 5616,
      "Ġproced": 5617,
      "ĠBook": 5618,
      "Ġbasically": 5619,
      "78": 5620,
      "ĠPac": 5621,
      "that": 5622,
      "ownt": 5623,
      "ĠConserv": 5624,
      "Since": 5625,
      "Ġexperienced": 5626,
      "Ġdifferences": 5627,
      "Ġaid": 5628,
      "Ġturning": 5629,
      "Ġconcent": 5630,
      "cohol": 5631,
      "Ġtur": 5632,
      "Ġaccident": 5633,
      "Ġidentify": 5634,
      "essions": 5635,
      "Ġshift": 5636,
      "Ġhttps": 5637,
      "Ġopportunities": 5638,
      "Ġpanel": 5639,
      "Ġafternoon": 5640,
      "ĠCharl": 5641,
      "Ġbelong": 5642,
      ".A": 5643,
      "ogue": 5644,
      "Ġobserv": 5645,
      "Ġpulled": 5646,
      "Ġspring": 5647,
      "Ġseriously": 5648,
      "Ġaircraft": 5649,
      "Ġmotiv": 5650,
      "ĠPower": 5651,
      "ruption": 5652,
      "Ġ//": 5653,
      "Ġglass": 5654,
      "odd": 5655,
      "ĠNov": 5656,
      "Ġconsumers": 5657,
      "68": 5658,
      "Ġprospect": 5659,
      "hab": 5660,
      "sen": 5661,
      "Ġagent": 5662,
      "ĠRad": 5663,
      "Ġseat": 5664,
      "Ġdepart": 5665,
      "Ġends": 5666,
      "Ġdiss": 5667,
      "Ġevening": 5668,
      "?âĢĿĊĊ": 5669,
      "asp": 5670,
      "Ġlisten": 5671,
      "ĠHaw": 5672,
      "Ġemergency": 5673,
      "osite": 5674,
      "ĠIN": 5675,
      "Ġcompleted": 5676,
      "PD": 5677,
      "Ġvisual": 5678,
      "Ġtreated": 5679,
      "apping": 5680,
      "win": 5681,
      "gen": 5682,
      "Ġast": 5683,
      "hered": 5684,
      "ller": 5685,
      "ĠDaily": 5686,
      "Ġelement": 5687,
      "eds": 5688,
      "apter": 5689,
      "Another": 5690,
      "Ġcombined": 5691,
      "oral": 5692,
      "His": 5693,
      "anged": 5694,
      "Ġstruggle": 5695,
      "ĠRoad": 5696,
      "Ġenemy": 5697,
      "Ġhopes": 5698,
      "Ġconstruct": 5699,
      "ĠShow": 5700,
      "SS": 5701,
      "Ġlots": 5702,
      "Ġapps": 5703,
      "Ġmort": 5704,
      "Ġtalked": 5705,
      "ĠOlymp": 5706,
      "Ġpassing": 5707,
      ";amp": 5708,
      "ket": 5709,
      "âĢĶand": 5710,
      "Ġid": 5711,
      ",[": 5712,
      "http": 5713,
      "Well": 5714,
      "........": 5715,
      "Ġprivacy": 5716,
      "ompl": 5717,
      "unction": 5718,
      "08": 5719,
      "ĠBet": 5720,
      "ucks": 5721,
      "CL": 5722,
      "raud": 5723,
      "ĠSpace": 5724,
      "ensions": 5725,
      "Ġpowers": 5726,
      "abilities": 5727,
      "Ġplants": 5728,
      "ĠRel": 5729,
      "Ġopposed": 5730,
      "Ġdiscl": 5731,
      "ĠHol": 5732,
      "Ġwidely": 5733,
      "Ġsuit": 5734,
      "bur": 5735,
      "Ġadvance": 5736,
      "ĠJackson": 5737,
      "ivered": 5738,
      "nell": 5739,
      "aled": 5740,
      "Ġdismiss": 5741,
      "Ġtrouble": 5742,
      "uous": 5743,
      "Ġcalcul": 5744,
      "Ġproceed": 5745,
      "Ġpackage": 5746,
      "ĠProject": 5747,
      "Ġattempts": 5748,
      "Ġpages": 5749,
      "Ġburn": 5750,
      "ita": 5751,
      "Ġfactor": 5752,
      "Ġdistance": 5753,
      "Ġliberal": 5754,
      "pet": 5755,
      "Ġzone": 5756,
      "yth": 5757,
      "Ġflat": 5758,
      "plom": 5759,
      "oking": 5760,
      "obe": 5761,
      "Ġcopyright": 5762,
      "ĠMatt": 5763,
      "ternal": 5764,
      "ĠBBC": 5765,
      "Ġreference": 5766,
      "Ġfrust": 5767,
      "rawn": 5768,
      "Ġtun": 5769,
      "Ġcart": 5770,
      "UT": 5771,
      "Ġreaction": 5772,
      "Phone": 5773,
      "estival": 5774,
      "Pe": 5775,
      "ato": 5776,
      "Ġstorm": 5777,
      "Ġreporters": 5778,
      "Sp": 5779,
      "Ġupgr": 5780,
      "Ġcollabor": 5781,
      "Ġtypically": 5782,
      "zer": 5783,
      "Ġdefault": 5784,
      "Ġgrab": 5785,
      "Ġvalid": 5786,
      "Ġsac": 5787,
      "Ġinstruct": 5788,
      "Ġhol": 5789,
      "ributed": 5790,
      "mosp": 5791,
      "Ġquant": 5792,
      "adow": 5793,
      "Ġquiet": 5794,
      "idel": 5795,
      "sts": 5796,
      "Ġwrites": 5797,
      "Ġdisappoint": 5798,
      "respond": 5799,
      "67": 5800,
      "ache": 5801,
      "Ġdenied": 5802,
      "esters": 5803,
      "ĠMem": 5804,
      "Ġapproved": 5805,
      "aints": 5806,
      "Ġbodies": 5807,
      "PR": 5808,
      "Ġsem": 5809,
      "razy": 5810,
      "aped": 5811,
      "Ġmatters": 5812,
      "Ġentertain": 5813,
      "Ġmal": 5814,
      "Ġresponded": 5815,
      "Ġoptim": 5816,
      "Ġstands": 5817,
      "Ġsets": 5818,
      "erry": 5819,
      "mond": 5820,
      "ĠToday": 5821,
      "elly": 5822,
      "Ind": 5823,
      "ĠNAS": 5824,
      "09": 5825,
      "edd": 5826,
      "Ġconfidence": 5827,
      "Ġcapable": 5828,
      "Ġelimin": 5829,
      "ÃĤÃĥ": 5830,
      "Ġrenew": 5831,
      "Ġexplo": 5832,
      "ĠDirector": 5833,
      "Ġtradition": 5834,
      "oken": 5835,
      "Ġemp": 5836,
      "lines": 5837,
      "Ġcreation": 5838,
      "Ġsplit": 5839,
      "cribe": 5840,
      "Ġgiant": 5841,
      "Ġinstitutions": 5842,
      "-L": 5843,
      "aniel": 5844,
      "ĠSystem": 5845,
      "ĠSqu": 5846,
      "Ġweather": 5847,
      "Ġcoff": 5848,
      "ĠMa": 5849,
      "Ġconfident": 5850,
      "ĠYet": 5851,
      "Ġunable": 5852,
      "gl": 5853,
      "ĠPenn": 5854,
      "Ġpitch": 5855,
      "ĠWilliam": 5856,
      "53": 5857,
      "Ġsatisf": 5858,
      "Ġbroadcast": 5859,
      "Ġcoast": 5860,
      "-G": 5861,
      "Ġsevere": 5862,
      "ĠHuman": 5863,
      "rant": 5864,
      "Ġcloud": 5865,
      "Ġperspective": 5866,
      "Ġprompt": 5867,
      "Ġfly": 5868,
      "Ġmand": 5869,
      "isters": 5870,
      "Ġadvert": 5871,
      "ĠOhio": 5872,
      "Ġtransition": 5873,
      "Ġnumerous": 5874,
      "Ġtechnical": 5875,
      "ĠMedia": 5876,
      "unte": 5877,
      "rid": 5878,
      "Ġcaption": 5879,
      "ĠAfghanistan": 5880,
      "ĠLabour": 5881,
      "ilit": 5882,
      "].": 5883,
      "xual": 5884,
      "II": 5885,
      "employ": 5886,
      "abled": 5887,
      "Ġreportedly": 5888,
      "abin": 5889,
      "Ġcrimes": 5890,
      "Ġpictures": 5891,
      "ĠTurkey": 5892,
      "Ġordered": 5893,
      "ĠTra": 5894,
      "Ġloved": 5895,
      "Ġfaces": 5896,
      "Ġforget": 5897,
      "Ġcraft": 5898,
      "Ġadvice": 5899,
      "Ġexperiences": 5900,
      "Ġflag": 5901,
      "ĠScience": 5902,
      "Ġshouldn": 5903,
      "Ġexplains": 5904,
      "02": 5905,
      "ĠAndrew": 5906,
      "Ġroute": 5907,
      "Ġdeclared": 5908,
      "Ġsuffered": 5909,
      "ishes": 5910,
      "Ġviolent": 5911,
      "Ġapprox": 5912,
      "Ġreporting": 5913,
      "Ã¤": 5914,
      "astern": 5915,
      "ĠLin": 5916,
      "ampion": 5917,
      "Ġmessages": 5918,
      "Ġproud": 5919,
      "Ġmovies": 5920,
      "usiness": 5921,
      "54": 5922,
      "Ġsubstant": 5923,
      "Ġdelay": 5924,
      "Ġnewspaper": 5925,
      "Ġongoing": 5926,
      "Ġbull": 5927,
      "ounded": 5928,
      "Ġcircumst": 5929,
      "ĠWal": 5930,
      "Ġguns": 5931,
      "ilty": 5932,
      "Ġcann": 5933,
      "ĠGrand": 5934,
      "ĠFollow": 5935,
      "Ġdeclined": 5936,
      "Ġconnected": 5937,
      "oves": 5938,
      "resents": 5939,
      "Over": 5940,
      "Ġcooper": 5941,
      "ulations": 5942,
      "Ġinjured": 5943,
      "Ġdelivered": 5944,
      "Ġpicked": 5945,
      "Ġthoughts": 5946,
      "Ġexcell": 5947,
      "Ġgra": 5948,
      "Ġeval": 5949,
      "Ġfindings": 5950,
      "Ġaccompl": 5951,
      "Ġadmitted": 5952,
      "],": 5953,
      "Cont": 5954,
      "evin": 5955,
      "OD": 5956,
      "Ġappropriate": 5957,
      "Ġforg": 5958,
      "Ġleaves": 5959,
      "ups": 5960,
      "razil": 5961,
      "tion": 5962,
      "Ġgather": 5963,
      "Ġprin": 5964,
      "dule": 5965,
      "arn": 5966,
      "arl": 5967,
      "ĠAv": 5968,
      "Ġemphas": 5969,
      "angers": 5970,
      "Ġmarried": 5971,
      "nergy": 5972,
      "Ġrot": 5973,
      "07": 5974,
      "Ġedge": 5975,
      "Ġpublicly": 5976,
      "Other": 5977,
      "essor": 5978,
      "uations": 5979,
      "ionally": 5980,
      "During": 5981,
      "ellow": 5982,
      "App": 5983,
      "Ġupdates": 5984,
      "reland": 5985,
      "Ġreaders": 5986,
      "Ġrail": 5987,
      ",âĢĻ": 5988,
      "ĠWood": 5989,
      "Ġarchitect": 5990,
      "Ġwalking": 5991,
      "ĠSov": 5992,
      "Ġperman": 5993,
      "Ġemails": 5994,
      "ooth": 5995,
      "ansas": 5996,
      "Ġrealize": 5997,
      "Ġlawyer": 5998,
      "Ġstatements": 5999,
      "Ġdial": 6000,
      "ĠChristmas": 6001,
      "Ġeditor": 6002,
      "Ġdrivers": 6003,
      "LS": 6004,
      "Rep": 6005,
      "Ġauth": 6006,
      "ĠRon": 6007,
      "ĠDou": 6008,
      "cos": 6009,
      "Ġconfirm": 6010,
      "Ġlegit": 6011,
      "ĠMuslims": 6012,
      "Ġactivists": 6013,
      "Ġsession": 6014,
      "ĠSher": 6015,
      "Ġexercise": 6016,
      "Ġourselves": 6017,
      "Ġpool": 6018,
      "Ġarmed": 6019,
      "enda": 6020,
      "Ġargue": 6021,
      "Ġagents": 6022,
      "Ġcontains": 6023,
      "Ġterrorist": 6024,
      "Ġpatient": 6025,
      "-sc": 6026,
      "Am": 6027,
      "ĠScot": 6028,
      "ĠSum": 6029,
      "aza": 6030,
      "Ġmoral": 6031,
      "Ġtalent": 6032,
      "Ġquarterback": 6033,
      "Ġobjects": 6034,
      "-N": 6035,
      "Ġphilosoph": 6036,
      "Ġfilled": 6037,
      "ouston": 6038,
      "uls": 6039,
      "ĠRev": 6040,
      "TA": 6041,
      "Ġsad": 6042,
      "Ġbuildings": 6043,
      "Ġtech": 6044,
      "enture": 6045,
      "ĠRod": 6046,
      "ĠID": 6047,
      "ourney": 6048,
      "600": 6049,
      "ĠGen": 6050,
      "Ġtransform": 6051,
      "Ġlabel": 6052,
      "Ġpractices": 6053,
      "Ġtree": 6054,
      "Res": 6055,
      "ĠPhot": 6056,
      "ÃĤÃĥÃĤÃĥ": 6057,
      "acter": 6058,
      "Many": 6059,
      "Ġdynam": 6060,
      "iat": 6061,
      "ĠTechn": 6062,
      "Ġeffectively": 6063,
      "Ĥ¬": 6064,
      "Ġmissed": 6065,
      "88": 6066,
      "ĠGM": 6067,
      "Ñģ": 6068,
      "Ġexamples": 6069,
      "ÃŃ": 6070,
      "ĠHy": 6071,
      "ala": 6072,
      "ĠUkraine": 6073,
      "Ġcentre": 6074,
      "Ġcauses": 6075,
      "asure": 6076,
      "ERS": 6077,
      "Ġshop": 6078,
      "Ġwear": 6079,
      "merican": 6080,
      "Oh": 6081,
      "Ġsubsequ": 6082,
      "Ġallegations": 6083,
      "Ġske": 6084,
      "69": 6085,
      "Ġfish": 6086,
      "TS": 6087,
      "250": 6088,
      "Tube": 6089,
      "Ġdebut": 6090,
      "Ġsecretary": 6091,
      "ĠVict": 6092,
      "ĠSeattle": 6093,
      "Ġbond": 6094,
      "orry": 6095,
      "ette": 6096,
      "ĠMichigan": 6097,
      "Ġinjuries": 6098,
      "agers": 6099,
      "illy": 6100,
      "orders": 6101,
      "ĠSee": 6102,
      "ĠRead": 6103,
      "orse": 6104,
      "Ġthinks": 6105,
      "amin": 6106,
      "Ġessentially": 6107,
      "Ġclient": 6108,
      "Ġflo": 6109,
      "unning": 6110,
      "Ġartist": 6111,
      "ĠJul": 6112,
      "Ġexpansion": 6113,
      "ĠIll": 6114,
      "800": 6115,
      "ĠKim": 6116,
      "acking": 6117,
      "-off": 6118,
      "Ġmotor": 6119,
      "Ġsam": 6120,
      "ĠSign": 6121,
      "ooking": 6122,
      "Follow": 6123,
      "Ġrain": 6124,
      "arters": 6125,
      "Ġhell": 6126,
      "Ġdesire": 6127,
      "Ġinitially": 6128,
      "Ð½": 6129,
      "ĠSaudi": 6130,
      "Ġpure": 6131,
      "Ġmaterials": 6132,
      "Ġexplan": 6133,
      "Ġfranch": 6134,
      "Ġfacts": 6135,
      "Although": 6136,
      "ĠFer": 6137,
      "gia": 6138,
      "Ġnecessarily": 6139,
      "ador": 6140,
      "ĠBat": 6141,
      "ĠWork": 6142,
      "Ġrow": 6143,
      "Ġgovernor": 6144,
      "Ġincor": 6145,
      "Ġvan": 6146,
      "Ġing": 6147,
      "Ġlinked": 6148,
      "Ġperformed": 6149,
      "ĠLife": 6150,
      "ĠBack": 6151,
      "ĠStan": 6152,
      "Ġscheduled": 6153,
      "Ġdatab": 6154,
      "omin": 6155,
      "Ġaccepted": 6156,
      "enger": 6157,
      "Ġmyster": 6158,
      "icing": 6159,
      "Ġwarned": 6160,
      "Ġdiplom": 6161,
      "esome": 6162,
      "iest": 6163,
      "Ġlisted": 6164,
      "kay": 6165,
      "ĠMount": 6166,
      "Ġvari": 6167,
      "Qu": 6168,
      "Ġincreases": 6169,
      "Ġsuc": 6170,
      "Ġadvanced": 6171,
      "Ġplayoff": 6172,
      "Ġfaced": 6173,
      "Ġmagazine": 6174,
      "Ġjoint": 6175,
      "Ġdoctor": 6176,
      "Ġbare": 6177,
      "MA": 6178,
      "Yes": 6179,
      "Ġneither": 6180,
      "ĠTO": 6181,
      "Ġabandon": 6182,
      "-H": 6183,
      "ĠLake": 6184,
      "rum": 6185,
      "Ġathlet": 6186,
      "illance": 6187,
      "ĠWeek": 6188,
      "De": 6189,
      "-like": 6190,
      "rip": 6191,
      "Ġyesterday": 6192,
      "Ġannouncement": 6193,
      "Ġmir": 6194,
      "Ġeverybody": 6195,
      "Ġradical": 6196,
      "Ġdecre": 6197,
      "ĠRE": 6198,
      "ĠSecond": 6199,
      "Ġnations": 6200,
      "irty": 6201,
      "Ġoffense": 6202,
      "gu": 6203,
      "pass": 6204,
      "Ġnearby": 6205,
      "ĠiPhone": 6206,
      "Ġfollows": 6207,
      "Ġfort": 6208,
      "Ġunderst": 6209,
      "ĠHen": 6210,
      "can": 6211,
      "Ġresolution": 6212,
      "Ġbegins": 6213,
      "Ġatmosp": 6214,
      "edy": 6215,
      "Ġconsequences": 6216,
      "Ġmoves": 6217,
      "Ġ\\": 6218,
      "Ġsurprised": 6219,
      "athan": 6220,
      "sembly": 6221,
      "otic": 6222,
      "'ĊĊ": 6223,
      "Ġdistribution": 6224,
      "Most": 6225,
      "Ġpra": 6226,
      "itors": 6227,
      "Ġalt": 6228,
      "Ġimproved": 6229,
      "04": 6230,
      "Ġapplied": 6231,
      "ĠDan": 6232,
      "Ġrepresents": 6233,
      "Ġaf": 6234,
      "Ġspons": 6235,
      "Ġchart": 6236,
      "Ġplane": 6237,
      "ĠDevelop": 6238,
      "ĠIreland": 6239,
      "ĠCNN": 6240,
      "Ġstood": 6241,
      "Ġphen": 6242,
      "Ġenh": 6243,
      "Ġwarm": 6244,
      "Ġadds": 6245,
      "gent": 6246,
      "Ġride": 6247,
      "Ġconfig": 6248,
      "ĠColumb": 6249,
      "Ġdemocracy": 6250,
      "Ġremark": 6251,
      "Ġflood": 6252,
      "ĠAff": 6253,
      "ĠBlue": 6254,
      "Ġguilty": 6255,
      "Ġtrib": 6256,
      "Ġthreats": 6257,
      ";ĊĊ": 6258,
      "irds": 6259,
      "Ġpushed": 6260,
      "Ġbrings": 6261,
      "Ġmanufacture": 6262,
      "ideo": 6263,
      "Ġshots": 6264,
      "Ġoutput": 6265,
      "ĠBarack": 6266,
      "ĠSub": 6267,
      "Ġalcohol": 6268,
      "ĠRomney": 6269,
      "Ġtow": 6270,
      "Ġsongs": 6271,
      "âĢĶthe": 6272,
      "whel": 6273,
      "Ġrein": 6274,
      "Ġwithd": 6275,
      "ĠJews": 6276,
      "Ġtotally": 6277,
      "usal": 6278,
      "ĠVol": 6279,
      "Ġbot": 6280,
      ".e": 6281,
      "Ġbehavi": 6282,
      "Ġdiscussed": 6283,
      "Ġhistorical": 6284,
      "vin": 6285,
      "ĠBoard": 6286,
      "Ġbrew": 6287,
      "ĠSwed": 6288,
      "ocratic": 6289,
      "Ġlawsuit": 6290,
      "ĠOnly": 6291,
      "ÑĢ": 6292,
      "Ġsought": 6293,
      "Ġconsistent": 6294,
      "190": 6295,
      "arden": 6296,
      "Ġentry": 6297,
      "Ġrising": 6298,
      "Ġfill": 6299,
      "Ġreceiving": 6300,
      "Ġinvestors": 6301,
      "Ġentered": 6302,
      "Ġkit": 6303,
      "ĠDiv": 6304,
      "mates": 6305,
      "Ġcombination": 6306,
      "ĠNBA": 6307,
      "ĠWhe": 6308,
      "Ġexistence": 6309,
      "Ġrestaurant": 6310,
      "Ġboys": 6311,
      "Ġbright": 6312,
      "Ġnative": 6313,
      "Ġisland": 6314,
      "ĠPrem": 6315,
      "ĠLib": 6316,
      "Ġarticles": 6317,
      "Ġheads": 6318,
      "Ġcreative": 6319,
      "abb": 6320,
      "Ġstorage": 6321,
      "ĠKorean": 6322,
      "Ġscored": 6323,
      "Ġcorrespond": 6324,
      "Ġbutton": 6325,
      "ĠBrazil": 6326,
      "Ġroughly": 6327,
      "fortunately": 6328,
      "top": 6329,
      "alty": 6330,
      "Ġresident": 6331,
      "acle": 6332,
      "met": 6333,
      "Ġclasses": 6334,
      "Ġsquare": 6335,
      "Ġinput": 6336,
      "Spe": 6337,
      "Ġunlikely": 6338,
      "Ġsav": 6339,
      "Ġboss": 6340,
      "Ġcontest": 6341,
      "PU": 6342,
      "icious": 6343,
      "Ġnetworks": 6344,
      "Ġconsumer": 6345,
      "ĠAnother": 6346,
      "Ġlie": 6347,
      "ĠIts": 6348,
      "ĠSports": 6349,
      "-called": 6350,
      "zona": 6351,
      "Ġfairly": 6352,
      "ĠISIS": 6353,
      "Ġsucceed": 6354,
      "ĠAsia": 6355,
      "Ġwarning": 6356,
      "issions": 6357,
      "Ġtemperature": 6358,
      "Ġcolleagues": 6359,
      "Ġfunctions": 6360,
      "mes": 6361,
      "Ġresc": 6362,
      "ĠHist": 6363,
      "Ġheavily": 6364,
      "Ġlibrary": 6365,
      "Ġlock": 6366,
      "ician": 6367,
      "Ġparliament": 6368,
      "Ġhousehold": 6369,
      "Ġsymbol": 6370,
      "Ġdeaths": 6371,
      "ĠSky": 6372,
      "Se": 6373,
      "ĠWalk": 6374,
      "ĠRights": 6375,
      "Ġanywhere": 6376,
      "oked": 6377,
      "Ġprohib": 6378,
      "ena": 6379,
      "ĠFar": 6380,
      "Ġprotests": 6381,
      "03": 6382,
      "ican": 6383,
      "Ġcurrency": 6384,
      "ĠMaybe": 6385,
      "Ġyounger": 6386,
      "Ġtargets": 6387,
      "06": 6388,
      "Ġdefined": 6389,
      "Ġplot": 6390,
      "duc": 6391,
      "Ġstring": 6392,
      "Ġimportance": 6393,
      "ollywood": 6394,
      "ĠMs": 6395,
      "ĠBob": 6396,
      "Ġbreaking": 6397,
      "Ġbike": 6398,
      "onna": 6399,
      "Ġmanage": 6400,
      "Ġrally": 6401,
      "Ġexpression": 6402,
      "Ġmetal": 6403,
      "Ġclassic": 6404,
      "Ġfraud": 6405,
      "ocket": 6406,
      "iques": 6407,
      "Ġlinks": 6408,
      "Ġcere": 6409,
      "Ã³": 6410,
      "hetic": 6411,
      "Ġstores": 6412,
      "erences": 6413,
      "Ġreplaced": 6414,
      "ĠEach": 6415,
      "Ġdoctors": 6416,
      "Ġempt": 6417,
      "Ġshif": 6418,
      "Ob": 6419,
      "Ġbuying": 6420,
      "!âĢĿ": 6421,
      "Ġnav": 6422,
      "Ġmarketing": 6423,
      "Ġfacility": 6424,
      "Ġblow": 6425,
      "Ġregulations": 6426,
      "andal": 6427,
      "Ġwaste": 6428,
      "Ġsomewhat": 6429,
      "season": 6430,
      "Ġfavour": 6431,
      "Ġopposite": 6432,
      "IF": 6433,
      "Ġallegedly": 6434,
      "Ġschol": 6435,
      "Ġessential": 6436,
      "Ġlaugh": 6437,
      "Ġillust": 6438,
      "ĠHouston": 6439,
      "Ġbug": 6440,
      "Ġpromise": 6441,
      "Ġholds": 6442,
      "/s": 6443,
      "inem": 6444,
      "TV": 6445,
      "ĠRam": 6446,
      "ĠBoy": 6447,
      "ĠColorado": 6448,
      "Ġcampus": 6449,
      "Ã¶": 6450,
      "Ġopponent": 6451,
      "Ġversions": 6452,
      "agan": 6453,
      "Ġhat": 6454,
      "Ġmotion": 6455,
      "OC": 6456,
      "Ġsnow": 6457,
      "ml": 6458,
      ".The": 6459,
      "ĠYear": 6460,
      "ĠDC": 6461,
      "pret": 6462,
      "Ġmoments": 6463,
      "Ġ.ĊĊ": 6464,
      "Ġhardware": 6465,
      "Ġvice": 6466,
      "Ġadults": 6467,
      "olve": 6468,
      "Ġevolution": 6469,
      "Ġrelevant": 6470,
      "ĠElect": 6471,
      "Ġrum": 6472,
      "ĠÎ": 6473,
      "Ġbag": 6474,
      "Ġsees": 6475,
      "Ġadm": 6476,
      "Ġzero": 6477,
      "war": 6478,
      "âĢ²": 6479,
      "ĠBrook": 6480,
      "See": 6481,
      "Ġhoping": 6482,
      "Ġharder": 6483,
      "ĠExp": 6484,
      "Ġchain": 6485,
      "Ġclosely": 6486,
      "Ġfewer": 6487,
      "erves": 6488,
      "opy": 6489,
      "Ġsick": 6490,
      "Ġdownt": 6491,
      "Ġtom": 6492,
      "Ġbon": 6493,
      "ometimes": 6494,
      "Pol": 6495,
      "Ġindustrial": 6496,
      "Ġacts": 6497,
      "chen": 6498,
      "oma": 6499,
      "ĠAnn": 6500,
      "Ġvolunte": 6501,
      "',": 6502,
      "En": 6503,
      "tering": 6504,
      "ĠValley": 6505,
      "Ġintention": 6506,
      "Ġreturns": 6507,
      "IR": 6508,
      "Ġsyn": 6509,
      "Ġmechanism": 6510,
      "va": 6511,
      "Ġacknowled": 6512,
      "hips": 6513,
      "Ġhur": 6514,
      "Ġparticipants": 6515,
      "ĠWik": 6516,
      "ittle": 6517,
      "ensus": 6518,
      "Ġfashion": 6519,
      "Ġcustomer": 6520,
      "Ġmine": 6521,
      "ĠCIA": 6522,
      "Ġdivision": 6523,
      "Ġsquad": 6524,
      "ĠSoviet": 6525,
      "host": 6526,
      "ĠGames": 6527,
      "greg": 6528,
      "Ġisol": 6529,
      "Ġemotional": 6530,
      "Ġimmediate": 6531,
      "ĠHel": 6532,
      "ĠYouTube": 6533,
      "Ġgrown": 6534,
      "ĠCard": 6535,
      "etroit": 6536,
      "Ġextent": 6537,
      "ulous": 6538,
      "Ġbatt": 6539,
      "Ġcircumstances": 6540,
      "ellect": 6541,
      "ORE": 6542,
      "Ġtournament": 6543,
      "ii": 6544,
      "ĠImage": 6545,
      "ologist": 6546,
      "oming": 6547,
      "iger": 6548,
      "ĠOF": 6549,
      "person": 6550,
      "ĠGar": 6551,
      "Ġsuffering": 6552,
      "120": 6553,
      "efully": 6554,
      "ĠDie": 6555,
      "atell": 6556,
      "Or": 6557,
      "Ġexcellent": 6558,
      "ĠClub": 6559,
      "Ġdetailed": 6560,
      "Ġwins": 6561,
      "Ġtermin": 6562,
      "Can": 6563,
      "Ġcycle": 6564,
      "Donald": 6565,
      "alian": 6566,
      "72": 6567,
      "Ġwave": 6568,
      "certain": 6569,
      "Ġcheap": 6570,
      "Ġancient": 6571,
      "Ġrelationships": 6572,
      "Ġcrazy": 6573,
      "-out": 6574,
      "Ġdescribe": 6575,
      "ĠEric": 6576,
      "Ġlies": 6577,
      "Ġcarrying": 6578,
      "Ġfundamental": 6579,
      "Ġkinds": 6580,
      "Ã¼": 6581,
      "xy": 6582,
      "Ġimmigrants": 6583,
      "ĠIP": 6584,
      "ĠJesus": 6585,
      "ĠPalestinian": 6586,
      "Add": 6587,
      "ordan": 6588,
      "Ġunus": 6589,
      "Ġtiny": 6590,
      "ayers": 6591,
      "Ġguide": 6592,
      "Ġdecline": 6593,
      "kel": 6594,
      "Ġfeatured": 6595,
      "print": 6596,
      "otal": 6597,
      "Ġskill": 6598,
      "Ġpip": 6599,
      "ĠLong": 6600,
      "Ġearned": 6601,
      "Ġauthors": 6602,
      "ua": 6603,
      "Ġcompetitive": 6604,
      "Ġtrick": 6605,
      "Ġstrange": 6606,
      "Ġartists": 6607,
      "Ġacting": 6608,
      "Ġefficient": 6609,
      "Ġinstru": 6610,
      "utch": 6611,
      "Ġformed": 6612,
      "ĠWatch": 6613,
      "Ġcert": 6614,
      "ĠCatholic": 6615,
      "Ġpushing": 6616,
      "Ġembr": 6617,
      "ora": 6618,
      "ĠEll": 6619,
      "awa": 6620,
      "water": 6621,
      "ockey": 6622,
      "Ġmanner": 6623,
      "chers": 6624,
      "ï¿": 6625,
      "Ġregional": 6626,
      "FP": 6627,
      "Ġsharing": 6628,
      "Ġsigning": 6629,
      "ĠGra": 6630,
      "Ġcomfortable": 6631,
      "umber": 6632,
      "NC": 6633,
      "ĠMot": 6634,
      "ĠCy": 6635,
      "Ġreferred": 6636,
      "Ġfrequently": 6637,
      "date": 6638,
      "anes": 6639,
      "ĠPutin": 6640,
      "Ġowned": 6641,
      "writ": 6642,
      "Ġcontroversial": 6643,
      "ĠEconom": 6644,
      "nic": 6645,
      "Ġring": 6646,
      "ĠWild": 6647,
      "Ġupdated": 6648,
      "ĠHome": 6649,
      "Ġwire": 6650,
      "uated": 6651,
      "ĠDavis": 6652,
      "Ġalongside": 6653,
      "Ġrepeatedly": 6654,
      "Ġhotel": 6655,
      "Ġmouth": 6656,
      "âĸ": 6657,
      "Ġcommitment": 6658,
      "Ġattempted": 6659,
      "Ġmeat": 6660,
      "nam": 6661,
      "ĠAut": 6662,
      "ĠWay": 6663,
      "Ġcolumn": 6664,
      "ĠCle": 6665,
      "ĠDi": 6666,
      "pan": 6667,
      "weight": 6668,
      "word": 6669,
      "ĠOld": 6670,
      "ĠNY": 6671,
      "Ġupcoming": 6672,
      "?\"ĊĊ": 6673,
      "Ġegg": 6674,
      "ĠEnergy": 6675,
      "Ġurban": 6676,
      "Ð¾Ð": 6677,
      "Ġrealized": 6678,
      "Ġsentence": 6679,
      "uable": 6680,
      "-level": 6681,
      "Ġfemin": 6682,
      "Then": 6683,
      "Ġschedule": 6684,
      "Ġintent": 6685,
      "Ġdepth": 6686,
      "ĠSar": 6687,
      "Ġdedicated": 6688,
      "Ġposts": 6689,
      "iveness": 6690,
      "ĠArizona": 6691,
      "ĠCharles": 6692,
      "Despite": 6693,
      "Ġstruck": 6694,
      "Ġsuicide": 6695,
      "rison": 6696,
      "ï¿½": 6697,
      "amily": 6698,
      "Ġliqu": 6699,
      "ceived": 6700,
      "rive": 6701,
      "Ġpregn": 6702,
      "iami": 6703,
      "Ġinspired": 6704,
      "ko": 6705,
      "62": 6706,
      "ĠIns": 6707,
      "Ġuniverse": 6708,
      "ĠEr": 6709,
      "ĠTop": 6710,
      "Ġwalked": 6711,
      "ĠJava": 6712,
      "Ġtargeted": 6713,
      "ographic": 6714,
      "ĠWars": 6715,
      "ĠRight": 6716,
      "Ġpled": 6717,
      "ugh": 6718,
      "obb": 6719,
      "Ġdesk": 6720,
      "izz": 6721,
      "Ġusual": 6722,
      "ĠDev": 6723,
      "Ġjourney": 6724,
      "Ġopponents": 6725,
      "Ġmedic": 6726,
      "Ġagenda": 6727,
      "Ġorders": 6728,
      "Ġassets": 6729,
      "Ġcausing": 6730,
      "Like": 6731,
      "DS": 6732,
      "Ġflu": 6733,
      "Ġnewslet": 6734,
      "Ġmainstream": 6735,
      "Ġreput": 6736,
      "Ġsister": 6737,
      "Ġserving": 6738,
      "aylor": 6739,
      "Ġstudio": 6740,
      "Ġvirtual": 6741,
      "ĠAgain": 6742,
      "ĠSupp": 6743,
      "Ġsurveillance": 6744,
      "ĠDown": 6745,
      "Ġchannel": 6746,
      "ĠDefense": 6747,
      "ĠLord": 6748,
      "Per": 6749,
      "Ġwatched": 6750,
      "luding": 6751,
      "Ġchairman": 6752,
      "Ġtransp": 6753,
      "adel": 6754,
      "Ġoverwhel": 6755,
      "People": 6756,
      "ĠMen": 6757,
      "Ġsurrounding": 6758,
      "Ġcoffee": 6759,
      "Ġlatter": 6760,
      "ati": 6761,
      "Ġliterally": 6762,
      "Ġobserved": 6763,
      "Ġsubsid": 6764,
      "burg": 6765,
      "Ġsand": 6766,
      "azi": 6767,
      "ĠCruz": 6768,
      "ĠTal": 6769,
      "Ġhall": 6770,
      "Ġprotected": 6771,
      ">>": 6772,
      "Ġtort": 6773,
      "Ġteachers": 6774,
      "Ġknowing": 6775,
      "ĠVan": 6776,
      "Ġbattery": 6777,
      "Ġstream": 6778,
      "ĠYoung": 6779,
      "Ġfasc": 6780,
      "avor": 6781,
      "Ġprecise": 6782,
      "aze": 6783,
      "Ġapproval": 6784,
      "Ġrape": 6785,
      "Ġdeeply": 6786,
      "Ġking": 6787,
      "phy": 6788,
      "Ġsending": 6789,
      "Ġsimpl": 6790,
      "ipl": 6791,
      "Ġcommunication": 6792,
      "Ġcongress": 6793,
      "iciency": 6794,
      "Ġdealing": 6795,
      "Ġwal": 6796,
      "Ġfolks": 6797,
      "Ġaside": 6798,
      "Ġnarr": 6799,
      "rence": 6800,
      "Ġsky": 6801,
      "Ġnoticed": 6802,
      "iments": 6803,
      "Ġremote": 6804,
      "Ġexciting": 6805,
      "Ġpassion": 6806,
      "Ġdu": 6807,
      "Ġfixed": 6808,
      "acc": 6809,
      "Ġgod": 6810,
      "Ġbasket": 6811,
      "Ġwinter": 6812,
      "Ġformat": 6813,
      "Ġforth": 6814,
      "Ġproperties": 6815,
      "sole": 6816,
      "-related": 6817,
      "Ġvolume": 6818,
      "Ġrisks": 6819,
      "Ġalive": 6820,
      "Two": 6821,
      "ĠJr": 6822,
      "Ġrequirements": 6823,
      "rors": 6824,
      "Ġcrash": 6825,
      "gor": 6826,
      "Ġrefugees": 6827,
      "61": 6828,
      "rations": 6829,
      "Ġexplore": 6830,
      "alle": 6831,
      "ĠPan": 6832,
      "mun": 6833,
      "Ġneut": 6834,
      "ĠWat": 6835,
      "Ġwake": 6836,
      "Ġexhib": 6837,
      "ulture": 6838,
      "Ġdiet": 6839,
      "allas": 6840,
      "Ġunknown": 6841,
      "ensity": 6842,
      "Ġanyway": 6843,
      "Ġdefeat": 6844,
      "ĠBrad": 6845,
      "Ġtested": 6846,
      "abis": 6847,
      "Ġreward": 6848,
      "hus": 6849,
      "Ġpromised": 6850,
      "Ġunemploy": 6851,
      "ĠTit": 6852,
      "Ġnarrow": 6853,
      "Ġgang": 6854,
      "gery": 6855,
      "Ġsweet": 6856,
      "Ġgap": 6857,
      "ĠStephen": 6858,
      "Ġmistake": 6859,
      "Ġeating": 6860,
      "Ġinvolving": 6861,
      "iro": 6862,
      "Ġattacked": 6863,
      "ĠArch": 6864,
      "ĠMax": 6865,
      "onymous": 6866,
      "Ġheight": 6867,
      "ĠFil": 6868,
      "ums": 6869,
      "Ġwest": 6870,
      "Ġlocations": 6871,
      "Ġphenomen": 6872,
      "Ġdestroyed": 6873,
      "Ġblame": 6874,
      "Ġwelcome": 6875,
      "ĠChild": 6876,
      "Ġwage": 6877,
      "Ġselection": 6878,
      "ether": 6879,
      "Ġproperly": 6880,
      "Ġextended": 6881,
      "Ġproof": 6882,
      "ixt": 6883,
      "Ġputs": 6884,
      "ta": 6885,
      "ras": 6886,
      "Ġimpressive": 6887,
      "Ġsuddenly": 6888,
      "ĠEnter": 6889,
      "Ġapproximately": 6890,
      "Int": 6891,
      "apse": 6892,
      "arry": 6893,
      "ĠCast": 6894,
      "Ġmatches": 6895,
      "63": 6896,
      "ĠPolit": 6897,
      "Ġterritory": 6898,
      "anges": 6899,
      "ingu": 6900,
      "oration": 6901,
      "Ġsample": 6902,
      "ĠKevin": 6903,
      "ĠAT": 6904,
      "Ġconver": 6905,
      "Ġnorthern": 6906,
      "Ġsustain": 6907,
      "ocation": 6908,
      "Ġdry": 6909,
      "Ġprotesters": 6910,
      "mpt": 6911,
      "Ġdiscover": 6912,
      "ogan": 6913,
      "ĠFort": 6914,
      "-spe": 6915,
      "Ġslowly": 6916,
      "ĠMiller": 6917,
      "ĠBest": 6918,
      "igg": 6919,
      "!\"": 6920,
      "Ġmerely": 6921,
      "care": 6922,
      "Ġpal": 6923,
      "Ġfranchise": 6924,
      "Ġpromote": 6925,
      "Ġterrorism": 6926,
      "ĠWomen": 6927,
      "Ġchose": 6928,
      "Ġmaximum": 6929,
      "ao": 6930,
      "Ġwid": 6931,
      "LA": 6932,
      "Ġtypical": 6933,
      "Ġteacher": 6934,
      "Ġsho": 6935,
      "Ġlicense": 6936,
      "Ġrequests": 6937,
      "Ġdiagn": 6938,
      "Ġselected": 6939,
      "ĠPR": 6940,
      "aun": 6941,
      "Ġfuck": 6942,
      "owered": 6943,
      "-ex": 6944,
      "obile": 6945,
      "Ġshel": 6946,
      "Ġoblig": 6947,
      "ĠWilson": 6948,
      "Ġmoder": 6949,
      "lies": 6950,
      "oster": 6951,
      "lock": 6952,
      "Ġtheme": 6953,
      "Ġeast": 6954,
      "Ġdisag": 6955,
      "verty": 6956,
      "-E": 6957,
      "Ġretire": 6958,
      "itarian": 6959,
      "lv": 6960,
      "ĠLu": 6961,
      "Ġworried": 6962,
      "Ġrecognize": 6963,
      "inson": 6964,
      "Ġassume": 6965,
      "arity": 6966,
      "ĠStand": 6967,
      "ĠDetroit": 6968,
      "west": 6969,
      "asks": 6970,
      "Ġtopic": 6971,
      "igure": 6972,
      "ĠDam": 6973,
      "ĠAgency": 6974,
      "Ġdeals": 6975,
      "Ġsupports": 6976,
      "Ġconfront": 6977,
      "stone": 6978,
      "ĠHollywood": 6979,
      "ĠCamer": 6980,
      "Ġpoverty": 6981,
      ".c": 6982,
      "ĠClass": 6983,
      "ĠMic": 6984,
      "Ġprote": 6985,
      "Ġabortion": 6986,
      "ye": 6987,
      "Ġadapt": 6988,
      "Ġlikes": 6989,
      "VER": 6990,
      "Ġnomine": 6991,
      "John": 6992,
      "Ġallies": 6993,
      "Ġfacilities": 6994,
      "ĠSociety": 6995,
      "ĠAdminist": 6996,
      "Ġarguments": 6997,
      "pool": 6998,
      "Ġitem": 6999,
      "Ġunderstood": 7000,
      "-W": 7001,
      "axy": 7002,
      "cers": 7003,
      "raid": 7004,
      "Ġcontrolled": 7005,
      "Ġfees": 7006,
      "ĠPS": 7007,
      "uilding": 7008,
      "Ġped": 7009,
      "ĠFour": 7010,
      "79": 7011,
      "celer": 7012,
      "Ġsole": 7013,
      "Ġsomehow": 7014,
      "woman": 7015,
      "Ġconstant": 7016,
      "aug": 7017,
      "Ġresistance": 7018,
      "ĠJersey": 7019,
      "Ġhonor": 7020,
      "ĠItaly": 7021,
      "GBT": 7022,
      "mail": 7023,
      "Ġdress": 7024,
      "Ġcritics": 7025,
      "lls": 7026,
      "Ġdrag": 7027,
      "pes": 7028,
      "Ġjournalists": 7029,
      "Ġphase": 7030,
      "ĠCompany": 7031,
      "Ġscheme": 7032,
      "Ġequival": 7033,
      "Ġregions": 7034,
      "ĠFord": 7035,
      "Ġcommunications": 7036,
      "asts": 7037,
      "Ġvillage": 7038,
      "Ġbunch": 7039,
      "osis": 7040,
      "Ġstim": 7041,
      "alo": 7042,
      "Ġobtained": 7043,
      "aser": 7044,
      "Ġlimits": 7045,
      "Ġpersonally": 7046,
      "</": 7047,
      "han": 7048,
      "Ġpunish": 7049,
      "Ġexposed": 7050,
      "ĠKn": 7051,
      "ĠSpanish": 7052,
      "iner": 7053,
      "Ġevil": 7054,
      "Ġchampion": 7055,
      "redit": 7056,
      "ĠCarl": 7057,
      "Ġthread": 7058,
      "Ġstrongly": 7059,
      "rimination": 7060,
      "Ġfalling": 7061,
      "Ġdeck": 7062,
      "Ġsomewhere": 7063,
      "ĠOk": 7064,
      "Ġcondem": 7065,
      "Ġvacc": 7066,
      "Rel": 7067,
      "Ġprofit": 7068,
      "orted": 7069,
      "Ġdefinition": 7070,
      "Ġescape": 7071,
      "Ġharass": 7072,
      "ĠNight": 7073,
      "Ġcomparison": 7074,
      "Ġempty": 7075,
      "sters": 7076,
      "usse": 7077,
      "ĠGeorgia": 7078,
      "ĠNASA": 7079,
      "Ġpolls": 7080,
      "owa": 7081,
      "May": 7082,
      "Ġmeetings": 7083,
      "Ġencourage": 7084,
      "Ġflex": 7085,
      "Ġwinner": 7086,
      "enders": 7087,
      "Ġhyd": 7088,
      "Ġemissions": 7089,
      "Ġtruck": 7090,
      "Ġrub": 7091,
      "-com": 7092,
      "Ġdecent": 7093,
      "Ġdatabase": 7094,
      "cow": 7095,
      "Ġpic": 7096,
      "pected": 7097,
      "ĠMiami": 7098,
      "cho": 7099,
      "look": 7100,
      ".j": 7101,
      "Ġcutting": 7102,
      "oric": 7103,
      "Ġbear": 7104,
      "iform": 7105,
      "Ġbid": 7106,
      "ĠLove": 7107,
      "Ġsouthern": 7108,
      "ura": 7109,
      "str": 7110,
      "Ġcomprom": 7111,
      "ĠAsian": 7112,
      "rome": 7113,
      "Ġemployee": 7114,
      "Ġtrees": 7115,
      "ĠNetwork": 7116,
      "ciples": 7117,
      "Ġdesper": 7118,
      "zens": 7119,
      "wan": 7120,
      "ĠDespite": 7121,
      "nesota": 7122,
      "Ġhits": 7123,
      "ĠSC": 7124,
      "intend": 7125,
      "Ġanx": 7126,
      "Ġstronger": 7127,
      "Ġgoods": 7128,
      "ĠNHL": 7129,
      "bel": 7130,
      "Ġgotten": 7131,
      "ĠDaniel": 7132,
      "ĠIrish": 7133,
      "ĠCam": 7134,
      "Ġpurposes": 7135,
      "Ġideal": 7136,
      "Ġdirected": 7137,
      "igation": 7138,
      "89": 7139,
      "ĠDun": 7140,
      "Ġdeleg": 7141,
      "ĠEnd": 7142,
      "Ġinqu": 7143,
      "name": 7144,
      "ĠLabor": 7145,
      "Ġclaiming": 7146,
      "UR": 7147,
      "Ġbench": 7148,
      "ads": 7149,
      "ĠDar": 7150,
      "Ġfinds": 7151,
      "ĠView": 7152,
      "Ġintellect": 7153,
      "ĠNations": 7154,
      "700": 7155,
      "Ġunp": 7156,
      "Ġchosen": 7157,
      "Ġfifth": 7158,
      "Ġofficially": 7159,
      "Ġsoul": 7160,
      "bar": 7161,
      "rary": 7162,
      "Ġcolon": 7163,
      "gender": 7164,
      "Ġicon": 7165,
      "Ġelectricity": 7166,
      "Ġdeveloper": 7167,
      "Ġdriven": 7168,
      "ĪĴ": 7169,
      "Ġfold": 7170,
      "Ġamounts": 7171,
      "Ġextensive": 7172,
      "asters": 7173,
      "ĠCD": 7174,
      "Ġstretch": 7175,
      "icken": 7176,
      "Ġties": 7177,
      "aire": 7178,
      "ĠBell": 7179,
      "Ġruled": 7180,
      "Ġdrawn": 7181,
      "Any": 7182,
      "ĠThank": 7183,
      "Ġincl": 7184,
      "Ġpayments": 7185,
      "Ġsight": 7186,
      "eping": 7187,
      "Ġthreatened": 7188,
      "Ġending": 7189,
      "Ġretain": 7190,
      "ĠCat": 7191,
      "owed": 7192,
      "EW": 7193,
      "ĠDNA": 7194,
      "Ġdogs": 7195,
      "Ġreasonable": 7196,
      "ĠInf": 7197,
      "Ġrejected": 7198,
      "Ġperfectly": 7199,
      "Ġdistinct": 7200,
      "Ġaspects": 7201,
      "Ġspin": 7202,
      "ĠJordan": 7203,
      "Ġcaptured": 7204,
      "Ġanswers": 7205,
      "Ġsomebody": 7206,
      "Ġengage": 7207,
      "boy": 7208,
      "Ġparam": 7209,
      "ĠSk": 7210,
      "ĠThough": 7211,
      "Ġprimarily": 7212,
      "Ġconstantly": 7213,
      "ĠOS": 7214,
      "lder": 7215,
      "Ġtrading": 7216,
      "Ġfighters": 7217,
      "ĠSea": 7218,
      "Ġadmit": 7219,
      "ĠAttorney": 7220,
      "74": 7221,
      "-cont": 7222,
      "Ġble": 7223,
      "ĠLight": 7224,
      "Ġseats": 7225,
      "CE": 7226,
      "Ġfields": 7227,
      "regon": 7228,
      "Ġrig": 7229,
      "Ġchoices": 7230,
      "Ġhouses": 7231,
      "ĠGall": 7232,
      "imp": 7233,
      "ĠServices": 7234,
      "zy": 7235,
      "ĠLand": 7236,
      "Ġparking": 7237,
      "Ġanymore": 7238,
      "Ġtank": 7239,
      "Ġestimates": 7240,
      "Ġflying": 7241,
      "Ġrival": 7242,
      "Ġboot": 7243,
      "Ġpod": 7244,
      "Police": 7245,
      "ĠTurk": 7246,
      "Ġconstit": 7247,
      "Ġsolutions": 7248,
      "ĠReal": 7249,
      "Ġtechnologies": 7250,
      "irms": 7251,
      "ĠDisney": 7252,
      "cont": 7253,
      "Ġregularly": 7254,
      "Ġelsewhere": 7255,
      "Ġcourts": 7256,
      "ĠDark": 7257,
      "Ġresulting": 7258,
      "ĠMS": 7259,
      "Once": 7260,
      "ĠLew": 7261,
      "Ġpayment": 7262,
      "Ġactor": 7263,
      "Ġcontem": 7264,
      "Ġnarrative": 7265,
      "Ġnobody": 7266,
      "Ġemployment": 7267,
      "Ġoutcome": 7268,
      "apes": 7269,
      "Ġencoun": 7270,
      "Ġexists": 7271,
      "ĠHun": 7272,
      "Ġprovince": 7273,
      "ĠWhere": 7274,
      "Ġawesome": 7275,
      "ĠAcadem": 7276,
      "Ġprofile": 7277,
      "isan": 7278,
      "Ġkeeps": 7279,
      "Ġcontrols": 7280,
      "inations": 7281,
      "ĠScotland": 7282,
      "Ġmurd": 7283,
      "Ġcomponents": 7284,
      "Ġmixed": 7285,
      "oil": 7286,
      "ĠWater": 7287,
      "Ġcontributed": 7288,
      "Ġletters": 7289,
      "ĠUt": 7290,
      "ĠVictor": 7291,
      "Ġmayor": 7292,
      ".co": 7293,
      "col": 7294,
      "Ġsignal": 7295,
      "onic": 7296,
      "Ġworldwide": 7297,
      "Ġapartment": 7298,
      "otten": 7299,
      "ĠBowl": 7300,
      "ĠBrian": 7301,
      "agram": 7302,
      "ĠAuthor": 7303,
      "Ġsituations": 7304,
      "ĠAdam": 7305,
      "ĠBru": 7306,
      "Ġincredible": 7307,
      "iana": 7308,
      "CS": 7309,
      "Ġfounder": 7310,
      "ĠBas": 7311,
      "earing": 7312,
      "%)": 7313,
      "Ġconcluded": 7314,
      "/or": 7315,
      "ĠOrgan": 7316,
      "ali": 7317,
      "Ġbaseball": 7318,
      "ĠTw": 7319,
      "state": 7320,
      "ĠSteven": 7321,
      "Ġclients": 7322,
      "Ġenemies": 7323,
      "Ġcoalition": 7324,
      "ĠMoore": 7325,
      "icer": 7326,
      "ĠChampionship": 7327,
      "Ġbills": 7328,
      "ĠId": 7329,
      "vy": 7330,
      "Ġatmosphere": 7331,
      "you": 7332,
      "Ġweird": 7333,
      "Also": 7334,
      "Ġcrucial": 7335,
      "Ġkil": 7336,
      "Ġloan": 7337,
      "ĠRog": 7338,
      "ĠTurn": 7339,
      "Ġcontinuing": 7340,
      "Ġregistered": 7341,
      "Ġupper": 7342,
      "Ġincredibly": 7343,
      "Ġaccurate": 7344,
      "Ġdemands": 7345,
      "emen": 7346,
      "Ġinformed": 7347,
      "ĠConstitution": 7348,
      "inity": 7349,
      "Ġfeedback": 7350,
      "CA": 7351,
      "Ġenthus": 7352,
      "Ġtied": 7353,
      "sea": 7354,
      "Te": 7355,
      "Ġassistant": 7356,
      "Ġdrinking": 7357,
      "Ġconscious": 7358,
      "Ġreporter": 7359,
      "inding": 7360,
      "ĠSouthern": 7361,
      "otes": 7362,
      "Ġangry": 7363,
      "Ġcategory": 7364,
      "Ġproved": 7365,
      "Today": 7366,
      "Ġstead": 7367,
      "Ġstuck": 7368,
      "Ġterrible": 7369,
      "Ġroutine": 7370,
      "Ġgenerate": 7371,
      "ĠItalian": 7372,
      "Ġexplanation": 7373,
      "ilarly": 7374,
      "Ġconven": 7375,
      "mont": 7376,
      "Ġticket": 7377,
      "ĠConf": 7378,
      "Ġimper": 7379,
      "180": 7380,
      "era": 7381,
      "Ġinfect": 7382,
      "Ġdozen": 7383,
      "Ġmachines": 7384,
      ".\"[": 7385,
      "ĠCivil": 7386,
      "Dr": 7387,
      "ĠAL": 7388,
      "ĠSpain": 7389,
      "Ġreturning": 7390,
      "ystem": 7391,
      "Ġraising": 7392,
      "Ġinnoc": 7393,
      "iscal": 7394,
      "dis": 7395,
      "onsin": 7396,
      "Ġnewly": 7397,
      "Ġrus": 7398,
      "Ġwriters": 7399,
      "Ġaggressive": 7400,
      "Ġrepresented": 7401,
      "Ġconclusion": 7402,
      "ĠJoseph": 7403,
      "Ġrecovery": 7404,
      "Ġmanip": 7405,
      "isconsin": 7406,
      "Ġexcess": 7407,
      "ĠThanks": 7408,
      "Ġgaming": 7409,
      "ker": 7410,
      "ĠDallas": 7411,
      "Ġ%": 7412,
      "Ġpaint": 7413,
      "Ġconsumption": 7414,
      "ĠProgram": 7415,
      "ĠEp": 7416,
      "Ġcompens": 7417,
      "-free": 7418,
      "MP": 7419,
      "adelph": 7420,
      "aron": 7421,
      "lers": 7422,
      "orne": 7423,
      "ez": 7424,
      "Ġestate": 7425,
      "rates": 7426,
      "Ġpenalty": 7427,
      "ĠAR": 7428,
      "Ġmyth": 7429,
      "Off": 7430,
      "Ġdollar": 7431,
      "Ġroster": 7432,
      "Ġgro": 7433,
      "Ġprogramming": 7434,
      "Ġorganized": 7435,
      "rage": 7436,
      "Ġinterpret": 7437,
      "Ġcapture": 7438,
      "rypt": 7439,
      "Ġconspir": 7440,
      "Ġcomplaint": 7441,
      "ĠTest": 7442,
      "ĠSn": 7443,
      "ĠGi": 7444,
      "anchester": 7445,
      "ĠEduc": 7446,
      "essed": 7447,
      "ria": 7448,
      "Ġcomplicated": 7449,
      "Ġorigin": 7450,
      "ifications": 7451,
      "Ġtall": 7452,
      "Ġsatell": 7453,
      "anny": 7454,
      "Ġgranted": 7455,
      "ĠCub": 7456,
      "ĠOs": 7457,
      "Because": 7458,
      "Ġ($": 7459,
      "Ġchances": 7460,
      "rich": 7461,
      "ĠWin": 7462,
      "Ġassistance": 7463,
      "Ġmagic": 7464,
      "Ġcounty": 7465,
      "Ġplastic": 7466,
      "Ġsympt": 7467,
      "Ġpilot": 7468,
      "uan": 7469,
      "Ġhabit": 7470,
      "Ġnut": 7471,
      "Ġaudio": 7472,
      "ima": 7473,
      "Ġshares": 7474,
      "ĠMinnesota": 7475,
      "adelphia": 7476,
      "Ġbitcoin": 7477,
      "Ġtherap": 7478,
      "post": 7479,
      ".D": 7480,
      "Ġsuccessfully": 7481,
      "ĠTem": 7482,
      "ĠOper": 7483,
      "Ġiron": 7484,
      "Ġroot": 7485,
      "urb": 7486,
      "ship": 7487,
      "Ġtechniques": 7488,
      "actions": 7489,
      "Ġlawmakers": 7490,
      "Inst": 7491,
      "ked": 7492,
      "-be": 7493,
      "hent": 7494,
      "gorith": 7495,
      "ĠCross": 7496,
      "Ġveteran": 7497,
      "ifer": 7498,
      "raph": 7499,
      "rep": 7500,
      "Com": 7501,
      "rete": 7502,
      "Ġdegrees": 7503,
      "MS": 7504,
      "ĠZeal": 7505,
      "Ġanticip": 7506,
      "Ġautomatically": 7507,
      "-class": 7508,
      "esy": 7509,
      "Fr": 7510,
      "ĠContin": 7511,
      "Ġscenes": 7512,
      "Ġhel": 7513,
      "========": 7514,
      "ĠPacific": 7515,
      "ĠParliament": 7516,
      "Ġru": 7517,
      "ĠHot": 7518,
      "ãĢ": 7519,
      "ĠColl": 7520,
      "Ġengaged": 7521,
      "ĠRoman": 7522,
      "Ġextract": 7523,
      "Ġoperate": 7524,
      "itals": 7525,
      "Ġaimed": 7526,
      "ĠCare": 7527,
      "inder": 7528,
      "Ġtaught": 7529,
      "Ġphr": 7530,
      "Ġsurvive": 7531,
      "Ġblocks": 7532,
      "idency": 7533,
      "list": 7534,
      "Ġteaching": 7535,
      "Ġpermanent": 7536,
      "Ġads": 7537,
      "thew": 7538,
      "aed": 7539,
      "Ġinstalled": 7540,
      "Ġtitles": 7541,
      "ĠFre": 7542,
      "Ġmonit": 7543,
      "Ġsolve": 7544,
      "ĠSenator": 7545,
      "ĠSpecial": 7546,
      "Ġattended": 7547,
      "Ġwestern": 7548,
      "ĠForeign": 7549,
      "Ġextrem": 7550,
      "reams": 7551,
      "Ġpin": 7552,
      "ĠNBC": 7553,
      "Ġmarked": 7554,
      "itar": 7555,
      "Ġacademic": 7556,
      "Ġaccomp": 7557,
      "fast": 7558,
      "ĠTaylor": 7559,
      "ĠAh": 7560,
      "Ġindex": 7561,
      "ules": 7562,
      "Ġvaluable": 7563,
      "Ġrating": 7564,
      "rific": 7565,
      "Ġvulnerable": 7566,
      "Ġcup": 7567,
      "everal": 7568,
      "uine": 7569,
      "abama": 7570,
      "Ġtaste": 7571,
      "Ġhidden": 7572,
      "Ġuncertain": 7573,
      "Ġoverse": 7574,
      "Ġlawyers": 7575,
      "Ġfake": 7576,
      "ĠBalt": 7577,
      "ĠLinux": 7578,
      "ĠBusiness": 7579,
      "Ġbom": 7580,
      "Ġprivile": 7581,
      "Ġworker": 7582,
      "ĠNick": 7583,
      "Ġdepending": 7584,
      "ĠLGBT": 7585,
      "Ġenable": 7586,
      "Ġregardless": 7587,
      "ibilities": 7588,
      "Ġcompre": 7589,
      "Ġdict": 7590,
      "Ġcollected": 7591,
      "Ġchampionship": 7592,
      "ĠIT": 7593,
      "Ġpace": 7594,
      "Ġpasses": 7595,
      "Ġcrack": 7596,
      "Ġdowntown": 7597,
      "Ġafraid": 7598,
      "98": 7599,
      "Ġvisited": 7600,
      "ĠKelly": 7601,
      "ashes": 7602,
      "Ġinspir": 7603,
      "Ġcable": 7604,
      "rating": 7605,
      "Ġrecording": 7606,
      "Ġsufficient": 7607,
      "HS": 7608,
      "Ġwarming": 7609,
      "Ġadvis": 7610,
      "Ġreputation": 7611,
      "Ġsurgery": 7612,
      "Ġtracks": 7613,
      "Ġelite": 7614,
      "Getty": 7615,
      "ĠDead": 7616,
      "Ġbes": 7617,
      "ĠTony": 7618,
      "/A": 7619,
      "Ġdisaster": 7620,
      "Ġenjoyed": 7621,
      "athy": 7622,
      "EA": 7623,
      "ĠMoscow": 7624,
      "Ġcomic": 7625,
      "Ġelev": 7626,
      "Ġequivalent": 7627,
      "ĠAvenue": 7628,
      "Ġthin": 7629,
      "aturally": 7630,
      "Ġracial": 7631,
      "Ġapolog": 7632,
      "Ġprinciples": 7633,
      "73": 7634,
      "Ġbusy": 7635,
      "etary": 7636,
      "Ġexposure": 7637,
      "ĠBull": 7638,
      "ĠAnth": 7639,
      "Ġphones": 7640,
      "Ġshit": 7641,
      "Ġgenerated": 7642,
      "Ġprocesses": 7643,
      "Ġportion": 7644,
      "ĠStill": 7645,
      "ĠSeries": 7646,
      "Ġtroub": 7647,
      "Ġprominent": 7648,
      "ĠNation": 7649,
      "ĠâĢĻ": 7650,
      "Ġcrypt": 7651,
      "Ġspr": 7652,
      "ĠRay": 7653,
      "ĠCoast": 7654,
      "Ġintense": 7655,
      "Ġnegotiations": 7656,
      "Ġpersonnel": 7657,
      "Ġmainly": 7658,
      "Ġduty": 7659,
      "active": 7660,
      "Ġentit": 7661,
      "Ġgrant": 7662,
      "/d": 7663,
      "ĠOregon": 7664,
      "ĠJosh": 7665,
      "Ġdefence": 7666,
      "ĠEastern": 7667,
      "quarters": 7668,
      "ĠViet": 7669,
      "Ġgall": 7670,
      "ĠInvest": 7671,
      "Ġresulted": 7672,
      "Ġfunny": 7673,
      "Ġneuro": 7674,
      "mann": 7675,
      "prise": 7676,
      "ĠTake": 7677,
      "Ġpounds": 7678,
      "ĠCall": 7679,
      "ĠLo": 7680,
      "fire": 7681,
      "Ġextension": 7682,
      "76": 7683,
      "Ġunusual": 7684,
      "Ġchat": 7685,
      "Ġemerged": 7686,
      "Ġmail": 7687,
      "-v": 7688,
      "Ġdescribes": 7689,
      "Ġbrut": 7690,
      "Ġengineering": 7691,
      "Ġpatterns": 7692,
      "ĠKurd": 7693,
      "Ġadopted": 7694,
      "ĠCome": 7695,
      "Ġcompete": 7696,
      "Ġeverywhere": 7697,
      "ĠIowa": 7698,
      "upid": 7699,
      "Ġfought": 7700,
      "icate": 7701,
      "âĢĻ,": 7702,
      "olt": 7703,
      "Ġblind": 7704,
      "Ġdiscipl": 7705,
      "Mean": 7706,
      "Ġpossession": 7707,
      "Ġtaxp": 7708,
      "Ġhadn": 7709,
      "ĠMu": 7710,
      "Ġcoordin": 7711,
      "Ġexplicit": 7712,
      "ĠZealand": 7713,
      "Ġdim": 7714,
      "ĠOl": 7715,
      "ĠKent": 7716,
      "ba": 7717,
      ".p": 7718,
      "Ġmedium": 7719,
      "Ġfeelings": 7720,
      "rell": 7721,
      "cling": 7722,
      "Ġcorruption": 7723,
      "âĢľThis": 7724,
      "ĠHas": 7725,
      "Ġbrowser": 7726,
      "ATE": 7727,
      ".twitter": 7728,
      "Ed": 7729,
      "log": 7730,
      "antic": 7731,
      "ĠVeg": 7732,
      "ĠBefore": 7733,
      "Ġpropag": 7734,
      "ĠFood": 7735,
      "ĠGreek": 7736,
      "LC": 7737,
      "cles": 7738,
      "-he": 7739,
      "Ġsanctions": 7740,
      "text": 7741,
      "this": 7742,
      "Ġcited": 7743,
      "Ġstations": 7744,
      "oen": 7745,
      "Ġenorm": 7746,
      "Ġcontracts": 7747,
      "HA": 7748,
      "Ġrarely": 7749,
      "Ġthick": 7750,
      "Ġrecru": 7751,
      "orough": 7752,
      "viously": 7753,
      "ilton": 7754,
      "ĠPolicy": 7755,
      "Ġminority": 7756,
      "Ġinev": 7757,
      "Ġexpectations": 7758,
      "herent": 7759,
      "ĠSaf": 7760,
      "ĠNorthern": 7761,
      "force": 7762,
      "ĠGer": 7763,
      "ĠMars": 7764,
      "Ġcameras": 7765,
      "Ġshortly": 7766,
      "Ġrecip": 7767,
      "idelines": 7768,
      "Ġsup": 7769,
      "istent": 7770,
      "life": 7771,
      "ifies": 7772,
      "-cent": 7773,
      "Ġstrict": 7774,
      "ĠWisconsin": 7775,
      "da": 7776,
      "Ġfirms": 7777,
      "Ġthousand": 7778,
      "Ġfinance": 7779,
      "tes": 7780,
      "Ġscenario": 7781,
      "obs": 7782,
      "Ġlights": 7783,
      "Ġho": 7784,
      "ĠNavy": 7785,
      "-J": 7786,
      "ĠAli": 7787,
      "Sec": 7788,
      "inking": 7789,
      "Rec": 7790,
      "Ġpermission": 7791,
      "Ġvisible": 7792,
      "Ġimplementation": 7793,
      "Ġunw": 7794,
      "-part": 7795,
      "Ġtor": 7796,
      "Ġparticipate": 7797,
      "Ġmel": 7798,
      "Ġadvertising": 7799,
      "Ġloud": 7800,
      "Ġpriority": 7801,
      "Ġwing": 7802,
      "ĠRick": 7803,
      "ĠGlobal": 7804,
      "Ġacceler": 7805,
      "eland": 7806,
      "cus": 7807,
      "Ġplug": 7808,
      "86": 7809,
      "ĠAmendment": 7810,
      "Ġven": 7811,
      "azz": 7812,
      "Ġlosses": 7813,
      "pread": 7814,
      "ĠHenry": 7815,
      "ogen": 7816,
      "ĠPhiladelphia": 7817,
      "Ġphotograph": 7818,
      "ĠHom": 7819,
      "Ġbridge": 7820,
      "ĠFoot": 7821,
      "fall": 7822,
      "Ġaffili": 7823,
      "enth": 7824,
      "urrent": 7825,
      "who": 7826,
      "abs": 7827,
      "Ġhistoric": 7828,
      "bal": 7829,
      "Ġshock": 7830,
      "ĠAsh": 7831,
      "Ġcreates": 7832,
      "Ġstrikes": 7833,
      "Ġlaid": 7834,
      "ogether": 7835,
      "anded": 7836,
      "Ġdozens": 7837,
      "amber": 7838,
      "ĠLive": 7839,
      "ĠDevelopment": 7840,
      "uer": 7841,
      "ni": 7842,
      "Ġcomputers": 7843,
      "Ġveget": 7844,
      "BO": 7845,
      "Ġobst": 7846,
      "Ġairport": 7847,
      "osexual": 7848,
      "chain": 7849,
      "Us": 7850,
      "athered": 7851,
      "ĠVis": 7852,
      "ĠPay": 7853,
      "Ġuncom": 7854,
      "Ġtag": 7855,
      "Ġclubs": 7856,
      "Ġfounded": 7857,
      "Ġcounsel": 7858,
      "ĠESP": 7859,
      "Ġbehalf": 7860,
      "asion": 7861,
      "weet": 7862,
      "Ġscoring": 7863,
      "71": 7864,
      "aska": 7865,
      "Ġyield": 7866,
      "ĠGreg": 7867,
      "Ġagric": 7868,
      "Ġwonderful": 7869,
      "Ġformal": 7870,
      "ĠOak": 7871,
      "Ġalgorith": 7872,
      "izon": 7873,
      "Ġgained": 7874,
      "mal": 7875,
      "::": 7876,
      "Ġfee": 7877,
      "Ġprinciple": 7878,
      "Ġepisodes": 7879,
      "Ġfault": 7880,
      "Ġtoler": 7881,
      "Ġbasketball": 7882,
      "igen": 7883,
      "Ġgenuine": 7884,
      "Ġmanufacturing": 7885,
      "Ġinterface": 7886,
      "ĠAD": 7887,
      "ĠHit": 7888,
      "UL": 7889,
      "++": 7890,
      "Ġpump": 7891,
      "there": 7892,
      "Ġcomponent": 7893,
      "ĠMajor": 7894,
      "Ġestablishment": 7895,
      "ounced": 7896,
      "Ġridic": 7897,
      "ĠEmp": 7898,
      "umin": 7899,
      "Ġcyber": 7900,
      "Ġrelief": 7901,
      "umer": 7902,
      "arlier": 7903,
      "Ġgift": 7904,
      "Before": 7905,
      "Ġphilosophy": 7906,
      "ĠRoyal": 7907,
      "Ġhole": 7908,
      "Ġuniform": 7909,
      "Ġmagn": 7910,
      "roduct": 7911,
      "Ġsaved": 7912,
      "ĠSnow": 7913,
      "imore": 7914,
      "Ġstable": 7915,
      "isp": 7916,
      "ĠPremier": 7917,
      "ĠAlabama": 7918,
      "etime": 7919,
      "ĠMid": 7920,
      "olis": 7921,
      "lete": 7922,
      "ĠKey": 7923,
      "Meanwhile": 7924,
      "opher": 7925,
      "Ġfoundation": 7926,
      "Ġdrawing": 7927,
      "ĠReview": 7928,
      "Ġjournalist": 7929,
      "lan": 7930,
      "ĠThus": 7931,
      "Ġexception": 7932,
      "rators": 7933,
      "Ġstadium": 7934,
      "ĠFred": 7935,
      "ilipp": 7936,
      "rative": 7937,
      "-American": 7938,
      "Ġju": 7939,
      "Ġwheel": 7940,
      "Ġheaded": 7941,
      "Ġborrow": 7942,
      "Ġstruggling": 7943,
      "Ġlandsc": 7944,
      "Ġspark": 7945,
      "Ġcrop": 7946,
      "Ġfootage": 7947,
      "Ġedition": 7948,
      "ĠSP": 7949,
      "Ġrecognized": 7950,
      "Ġindicate": 7951,
      "ĠMoh": 7952,
      "ĠKingdom": 7953,
      "Ġdoors": 7954,
      "ami": 7955,
      "Ġbanned": 7956,
      "Ġcannabis": 7957,
      "ĠAS": 7958,
      "ĠJac": 7959,
      "ĠThree": 7960,
      "ĠKir": 7961,
      "Ġrely": 7962,
      "ĠManchester": 7963,
      "Ġlegend": 7964,
      "-le": 7965,
      "ja": 7966,
      "ĠArm": 7967,
      "uce": 7968,
      "Ġprofession": 7969,
      "ependent": 7970,
      "Ġbeliefs": 7971,
      "Ġroles": 7972,
      "Ġplate": 7973,
      "aning": 7974,
      "jo": 7975,
      "portion": 7976,
      "Ġstab": 7977,
      "ĠRand": 7978,
      "Ġsynt": 7979,
      "idespread": 7980,
      "Ġbacked": 7981,
      "ĠRet": 7982,
      "Ġcontaining": 7983,
      "Ġwithdraw": 7984,
      "Ġneutral": 7985,
      "Ġdinner": 7986,
      "uns": 7987,
      "ĠAdministration": 7988,
      "teen": 7989,
      "oured": 7990,
      "Ġneighb": 7991,
      "Ġliked": 7992,
      "aus": 7993,
      "Ġships": 7994,
      "Ġentering": 7995,
      "Ġproducer": 7996,
      "Ġhang": 7997,
      "eman": 7998,
      "Ġcha": 7999,
      "ĠMcG": 8000,
      "ĠReport": 8001,
      "Ġachieved": 8002,
      "Ġriver": 8003,
      "Ġflaw": 8004,
      "Ġmovements": 8005,
      "Ġdeliber": 8006,
      "Ġgonna": 8007,
      "ulating": 8008,
      "Ġtackle": 8009,
      "ĠFC": 8010,
      "Ġreduction": 8011,
      "uper": 8012,
      "law": 8013,
      "Ġhired": 8014,
      "Ġwalls": 8015,
      "etts": 8016,
      "Pr": 8017,
      "Ġ->": 8018,
      "Ġfarmers": 8019,
      "Ġarrange": 8020,
      "Ġbath": 8021,
      "Those": 8022,
      "ĠAtlanta": 8023,
      "Ġfinger": 8024,
      "ĠOtt": 8025,
      "ĠJason": 8026,
      "from": 8027,
      "Ġdestruction": 8028,
      "iel": 8029,
      "ĠAcademy": 8030,
      "rous": 8031,
      "burgh": 8032,
      "ĠConference": 8033,
      "EP": 8034,
      "ĠDiego": 8035,
      "ĠMir": 8036,
      "Ġinterviews": 8037,
      "Ġnominee": 8038,
      "-k": 8039,
      "________________": 8040,
      "Ġlanguages": 8041,
      "bell": 8042,
      "Ġsharp": 8043,
      "sylv": 8044,
      "Ġbarely": 8045,
      "interest": 8046,
      "ĠPoint": 8047,
      "Ġdiscrimination": 8048,
      "ĠFund": 8049,
      "Ġaver": 8050,
      "born": 8051,
      "Col": 8052,
      "ĠVR": 8053,
      "osa": 8054,
      "ĠNob": 8055,
      "ĠCentre": 8056,
      "aching": 8057,
      "Ġstructures": 8058,
      "Ġproven": 8059,
      "bro": 8060,
      "Ġincent": 8061,
      "Ġforever": 8062,
      "Ġdelivery": 8063,
      "Ġtox": 8064,
      "Ġconvin": 8065,
      "away": 8066,
      "front": 8067,
      "ĠFair": 8068,
      "Ġprocessing": 8069,
      "Ġcontained": 8070,
      "cons": 8071,
      "-foot": 8072,
      "ĠDid": 8073,
      "RS": 8074,
      "ĠEducation": 8075,
      "Ġchallenging": 8076,
      "ĠPerhaps": 8077,
      "ĠReuters": 8078,
      "esc": 8079,
      "ls": 8080,
      "ĠHarry": 8081,
      "Ġupset": 8082,
      "riers": 8083,
      "Co": 8084,
      "Ġeuro": 8085,
      "Ġconvicted": 8086,
      "Ġunex": 8087,
      "Ġocean": 8088,
      "aying": 8089,
      "ATO": 8090,
      "ĠField": 8091,
      "Ġren": 8092,
      "ĠBry": 8093,
      "Ġrose": 8094,
      "olen": 8095,
      "Ġproducing": 8096,
      "ĠPack": 8097,
      "ĠPen": 8098,
      "Ġtechnique": 8099,
      "ĠAbout": 8100,
      "ĠData": 8101,
      "ĠTurkish": 8102,
      "Ġrestrictions": 8103,
      "Ġhitting": 8104,
      "usive": 8105,
      "ĠFed": 8106,
      "Ġretired": 8107,
      "Ġintellectual": 8108,
      "Ġillness": 8109,
      "enny": 8110,
      "file": 8111,
      "abinet": 8112,
      "ĠRadio": 8113,
      "Ġasks": 8114,
      "sylvania": 8115,
      "Ġutil": 8116,
      "Ġindicated": 8117,
      "Ġelectronic": 8118,
      "PG": 8119,
      "amsung": 8120,
      "Ġsmooth": 8121,
      "Ġhide": 8122,
      "Ġdescription": 8123,
      "Ġrapidly": 8124,
      "%,": 8125,
      "ĠHay": 8126,
      "PM": 8127,
      "ĠHor": 8128,
      "ĠDivision": 8129,
      "Ġcorporations": 8130,
      "Ġreviews": 8131,
      "ĠChristians": 8132,
      "Ġsuggesting": 8133,
      "owing": 8134,
      "ĠHard": 8135,
      "Who": 8136,
      "ĠSat": 8137,
      "Ġbegun": 8138,
      "Star": 8139,
      "ĠMayor": 8140,
      "Post": 8141,
      "Ġnotion": 8142,
      "Ġflash": 8143,
      "Ġexclusive": 8144,
      "ĠJudge": 8145,
      "ologists": 8146,
      "eries": 8147,
      "Ġbranch": 8148,
      "Ġbra": 8149,
      "Ġrecognition": 8150,
      "iti": 8151,
      "ikes": 8152,
      "110": 8153,
      "Ġnormally": 8154,
      "Ġperpet": 8155,
      "Ġequally": 8156,
      "Ġwidespread": 8157,
      "imm": 8158,
      "ĠOK": 8159,
      "-K": 8160,
      "lessly": 8161,
      "Ġloyal": 8162,
      "engers": 8163,
      "ĠRose": 8164,
      "ouver": 8165,
      "ĠNC": 8166,
      "Ġtickets": 8167,
      "ĠCO": 8168,
      "Ġexternal": 8169,
      "ĠMarket": 8170,
      "Ġlistening": 8171,
      "Ġburd": 8172,
      "ĠRef": 8173,
      "rik": 8174,
      "ĠEs": 8175,
      "Ġreaching": 8176,
      "ĠCirc": 8177,
      "iy": 8178,
      "udes": 8179,
      "Ġcontribute": 8180,
      "Ġwebsites": 8181,
      "uma": 8182,
      "Ġfriendly": 8183,
      "Ġgrass": 8184,
      "elf": 8185,
      "-tr": 8186,
      "ĠMcCain": 8187,
      "-game": 8188,
      "ĠAND": 8189,
      "Ġinvent": 8190,
      "Ġrepresentative": 8191,
      "Ġcollapse": 8192,
      "))": 8193,
      "achus": 8194,
      "ione": 8195,
      "Ġrobot": 8196,
      "Ġsettlement": 8197,
      "Ġprogressive": 8198,
      "Ġhardly": 8199,
      "Ġannounce": 8200,
      "ĠArabia": 8201,
      "usted": 8202,
      "ĠNext": 8203,
      "Ġcampaigns": 8204,
      "https": 8205,
      ".I": 8206,
      "arrass": 8207,
      "ĠUFC": 8208,
      "rical": 8209,
      "Ġmo": 8210,
      "sels": 8211,
      "Ġviewers": 8212,
      "rient": 8213,
      "Ġterrorists": 8214,
      "Ġpractical": 8215,
      "Ġwelf": 8216,
      "Ġprepare": 8217,
      "-min": 8218,
      "Ġbail": 8219,
      "Ġcarefully": 8220,
      "appy": 8221,
      "omething": 8222,
      "osm": 8223,
      "then": 8224,
      "Ġsmoke": 8225,
      "Ġreducing": 8226,
      "Ġexceed": 8227,
      "ĠNote": 8228,
      "Ġarray": 8229,
      "Ġfrag": 8230,
      "ĠMusic": 8231,
      "ĠKansas": 8232,
      "Ġunclear": 8233,
      ".N": 8234,
      "ĠBattle": 8235,
      "ĠNic": 8236,
      "ĠBeach": 8237,
      "ĠOnt": 8238,
      "ester": 8239,
      "ĠDig": 8240,
      "Ġwelfare": 8241,
      "ĠFurther": 8242,
      "Ġethnic": 8243,
      "Ġminds": 8244,
      "Ġoverwhelming": 8245,
      "Ġsensitive": 8246,
      "ĠLuc": 8247,
      "Ġinitiative": 8248,
      "nedy": 8249,
      "Ġrespectively": 8250,
      "ĠLind": 8251,
      "Ġracist": 8252,
      "Ġtail": 8253,
      "ĠABC": 8254,
      "Ġscores": 8255,
      "Ġrecover": 8256,
      "Ġdeputy": 8257,
      "Ġfiscal": 8258,
      "Ġassociation": 8259,
      "Ġinvolvement": 8260,
      "ancouver": 8261,
      ".J": 8262,
      "rolled": 8263,
      "Ġthrown": 8264,
      "ĠIce": 8265,
      "igrant": 8266,
      "Ġconvinced": 8267,
      "Ġlists": 8268,
      "ĠTenn": 8269,
      "Ġmilk": 8270,
      "anna": 8271,
      "UN": 8272,
      "umes": 8273,
      "uties": 8274,
      "ĠESPN": 8275,
      "ĠBernie": 8276,
      "Ġdevast": 8277,
      "ĠLy": 8278,
      "ifest": 8279,
      "Ġvital": 8280,
      "Ġfeaturing": 8281,
      "ĠSir": 8282,
      "ecut": 8283,
      "Ġvary": 8284,
      "Ġconnections": 8285,
      "Ġelig": 8286,
      "-wing": 8287,
      "ĠSS": 8288,
      "bec": 8289,
      "bn": 8290,
      "ĠLatin": 8291,
      "Ġframework": 8292,
      "heast": 8293,
      "rator": 8294,
      "ĠFull": 8295,
      "Ġdeeper": 8296,
      "Ġstatistics": 8297,
      "Ġfantasy": 8298,
      "ĠGov": 8299,
      "Ġinvited": 8300,
      "\"This": 8301,
      "ĠMah": 8302,
      "Ġunemployment": 8303,
      "Ġinvestigate": 8304,
      "Ġremem": 8305,
      "unior": 8306,
      "Ġimprovements": 8307,
      "Ġbehaviour": 8308,
      "Ġsugar": 8309,
      "Ġstrategic": 8310,
      "Ġjoining": 8311,
      "Ġanybody": 8312,
      "Ġcomplaints": 8313,
      "Ġwine": 8314,
      "Ġluck": 8315,
      "achusetts": 8316,
      "ĠLittle": 8317,
      "Ġmenu": 8318,
      "Ġconstitutional": 8319,
      "een": 8320,
      "Ġsteal": 8321,
      "ouch": 8322,
      "ĠPit": 8323,
      "iversary": 8324,
      "ĠNSA": 8325,
      "Ġindependence": 8326,
      "Ġwars": 8327,
      "ĠHD": 8328,
      "ĠMinistry": 8329,
      "Ġanger": 8330,
      "Man": 8331,
      "Ġdefine": 8332,
      "Ġsubjects": 8333,
      "ĠBrew": 8334,
      "pload": 8335,
      "Ġscreens": 8336,
      "ĠPennsylvania": 8337,
      "Ġnoise": 8338,
      "Ġscholars": 8339,
      "Ġroads": 8340,
      "ĠTown": 8341,
      "Ġjury": 8342,
      "Ġfiction": 8343,
      "ĠUlt": 8344,
      "Back": 8345,
      "ĠNever": 8346,
      "Ġtouchdown": 8347,
      "âĢĶâĢĶâĢĶâĢĶ": 8348,
      "Under": 8349,
      "Ġcitizen": 8350,
      "ĠSquare": 8351,
      "ĠKat": 8352,
      "Ġownership": 8353,
      "Ġtrained": 8354,
      "Ġfailing": 8355,
      "osit": 8356,
      "Ġgear": 8357,
      "leveland": 8358,
      "Ġalien": 8359,
      "Ġdiscovery": 8360,
      "Ġlobby": 8361,
      "ihad": 8362,
      "Me": 8363,
      "inois": 8364,
      "oding": 8365,
      "ĠAnton": 8366,
      "Ne": 8367,
      "Ġgathered": 8368,
      "Ġcontroversy": 8369,
      "Ġfears": 8370,
      "Ġimplemented": 8371,
      "Ġcomprehens": 8372,
      "Ġwages": 8373,
      "Ġinject": 8374,
      "ĠBrother": 8375,
      "icking": 8376,
      "Ġscandal": 8377,
      "alling": 8378,
      "Ġlicens": 8379,
      "Ġdemocratic": 8380,
      "Ġregister": 8381,
      "Ġfab": 8382,
      "po": 8383,
      "Ġcaptain": 8384,
      "Ġovert": 8385,
      "189": 8386,
      "Ġcollective": 8387,
      "Ġserves": 8388,
      "FF": 8389,
      "ĠMuseum": 8390,
      "ĠON": 8391,
      "Ġultimate": 8392,
      "Ġtip": 8393,
      "mate": 8394,
      "Ġincorpor": 8395,
      "Ġsoph": 8396,
      "ĠCommunity": 8397,
      "Ġstupid": 8398,
      "Ġneighbour": 8399,
      "Ġpeak": 8400,
      "101": 8401,
      "Ġtransgender": 8402,
      "RI": 8403,
      "Ġprosec": 8404,
      "mod": 8405,
      "ĠInformation": 8406,
      "Ġreferring": 8407,
      "Ġdisagree": 8408,
      "type": 8409,
      "Ġouts": 8410,
      "Ġtemporary": 8411,
      "ĠAle": 8412,
      "Ġlegs": 8413,
      "ĠMedical": 8414,
      "Ġversus": 8415,
      "Ġhandful": 8416,
      "agg": 8417,
      "ĠJay": 8418,
      "Ġawareness": 8419,
      "Ġrecommended": 8420,
      "ĠXbox": 8421,
      "Ref": 8422,
      "Ġsymptoms": 8423,
      "cific": 8424,
      "Ġreven": 8425,
      "Ġplatforms": 8426,
      "ĠCore": 8427,
      "Ġcasual": 8428,
      "Ġrural": 8429,
      "Ġtestim": 8430,
      "Ġremarks": 8431,
      "angel": 8432,
      "Ġtasks": 8433,
      "ĠCameron": 8434,
      "Ġaccus": 8435,
      "Ġattempting": 8436,
      "Ġdynamic": 8437,
      "mary": 8438,
      "Ġattacking": 8439,
      "ĠProfessor": 8440,
      "Ġtone": 8441,
      "ĠAction": 8442,
      "Ġheading": 8443,
      "Ġdiscussions": 8444,
      "ĠVegas": 8445,
      "Ġsin": 8446,
      "Ġsuffer": 8447,
      "/Getty": 8448,
      "Ġregulation": 8449,
      "Ġvisitors": 8450,
      "ĠAllen": 8451,
      "Ġlayer": 8452,
      "ĠPatrick": 8453,
      "stract": 8454,
      "Ġsamples": 8455,
      "ĠSanta": 8456,
      "Ġspaces": 8457,
      "ĠPent": 8458,
      "ĠMake": 8459,
      "acon": 8460,
      "EG": 8461,
      "esh": 8462,
      "Ġingred": 8463,
      "Ġcivilians": 8464,
      "Ġestimate": 8465,
      "Ġwww": 8466,
      "ĠMatthew": 8467,
      "ĠRen": 8468,
      "ĠWalker": 8469,
      "ĠBudd": 8470,
      "Ġlogic": 8471,
      "Ġexpanded": 8472,
      "-pl": 8473,
      "ĠIII": 8474,
      "ĠSpring": 8475,
      "oice": 8476,
      "Ġignore": 8477,
      "Ġpublication": 8478,
      "phones": 8479,
      "Ġpoly": 8480,
      "aret": 8481,
      "icket": 8482,
      "aka": 8483,
      "oz": 8484,
      "Ġtheat": 8485,
      "hy": 8486,
      "ĠQueen": 8487,
      "including": 8488,
      "News": 8489,
      "Ġextend": 8490,
      "cr": 8491,
      "Ġgenetic": 8492,
      "ĠAnthony": 8493,
      "Ġliquid": 8494,
      "Ġattached": 8495,
      "ĠPhilipp": 8496,
      "Ġsettings": 8497,
      "Ġgrounds": 8498,
      "ĠBall": 8499,
      "Ġneck": 8500,
      "Ġeastern": 8501,
      "Ġhypot": 8502,
      "AG": 8503,
      "itionally": 8504,
      "ĠStone": 8505,
      "ĠAlbert": 8506,
      "Ġdispl": 8507,
      "Ġraw": 8508,
      "Ġbrill": 8509,
      "Ġpurchased": 8510,
      "About": 8511,
      "Ġenormous": 8512,
      "ĠâĤ¬": 8513,
      "mad": 8514,
      "Ġhook": 8515,
      "Ġsorry": 8516,
      "ommod": 8517,
      "ĠCheck": 8518,
      "ĠHistory": 8519,
      "ĠGuardian": 8520,
      "Ġaffairs": 8521,
      "Ġentertainment": 8522,
      "ictions": 8523,
      "à¤": 8524,
      "Ġsuspected": 8525,
      "Ġtweeted": 8526,
      "lah": 8527,
      "Ġfactory": 8528,
      "ython": 8529,
      "Ġresource": 8530,
      "Ġranked": 8531,
      "Ġholiday": 8532,
      "ĠBaltimore": 8533,
      "Ġhorse": 8534,
      "Script": 8535,
      "ĠAp": 8536,
      "ĠGaza": 8537,
      "Ġbrothers": 8538,
      "ĠAustin": 8539,
      "Ġactors": 8540,
      "Ġstake": 8541,
      "Ġviewed": 8542,
      "Ġlegitimate": 8543,
      "-for": 8544,
      "Ġintervention": 8545,
      "ĠAPI": 8546,
      "Ġimprovement": 8547,
      "Ġrational": 8548,
      "ĠColumbia": 8549,
      "-style": 8550,
      "ĠStat": 8551,
      "Ġraces": 8552,
      "Ġactivist": 8553,
      "ĠGolden": 8554,
      "ĠConservative": 8555,
      "intendo": 8556,
      "ĠGreece": 8557,
      "iry": 8558,
      "Ġcro": 8559,
      "Where": 8560,
      "ultural": 8561,
      "arms": 8562,
      "Ġseemingly": 8563,
      "ĠSuch": 8564,
      "Ġinvolves": 8565,
      "Mc": 8566,
      "ref": 8567,
      "repre": 8568,
      "Ġpresum": 8569,
      "Ġhumanity": 8570,
      "Ġinvestigating": 8571,
      "Ġfallen": 8572,
      "Ġopinions": 8573,
      "Ġcoaches": 8574,
      "Ġdramatic": 8575,
      "Ġtomorrow": 8576,
      "Ġembarrass": 8577,
      "oval": 8578,
      "Ġinvestigators": 8579,
      "Ġrook": 8580,
      "iverpool": 8581,
      "Ġsubstantial": 8582,
      "ĠMassachusetts": 8583,
      "Ġsalary": 8584,
      "isting": 8585,
      "Ġdiversity": 8586,
      "ĠChair": 8587,
      "otype": 8588,
      ".-": 8589,
      "ĠStadium": 8590,
      "Ġabsence": 8591,
      "ourse": 8592,
      "Mar": 8593,
      "Ġcovers": 8594,
      "Ġforest": 8595,
      "geon": 8596,
      "Ġboat": 8597,
      "ĠSeason": 8598,
      "ective": 8599,
      "ĠRoy": 8600,
      "Ġreferend": 8601,
      "Ġmedicine": 8602,
      "Ġfulf": 8603,
      "Ġloans": 8604,
      "Ġoffices": 8605,
      "Ġovers": 8606,
      "ĠAcc": 8607,
      "Ġsuspended": 8608,
      "Ġadvocates": 8609,
      "quest": 8610,
      "âĢľThere": 8611,
      "ĠPot": 8612,
      "Ġstayed": 8613,
      "Ġgam": 8614,
      "Ġconspiracy": 8615,
      "ĠRevolution": 8616,
      "Ġproviders": 8617,
      "Ġkm": 8618,
      "ĠHead": 8619,
      "reprene": 8620,
      "Ġmonitor": 8621,
      "Ġceleb": 8622,
      "Ġcogn": 8623,
      "82": 8624,
      "ĠKennedy": 8625,
      "Ġresign": 8626,
      "Ġchapter": 8627,
      "Ġpapers": 8628,
      "ĠIranian": 8629,
      "Ġbars": 8630,
      "dit": 8631,
      "Ġjur": 8632,
      "RC": 8633,
      "cover": 8634,
      "Will": 8635,
      "xit": 8636,
      "Dav": 8637,
      "Ġcareful": 8638,
      "Ġamid": 8639,
      "ĠWW": 8640,
      "claim": 8641,
      "ammed": 8642,
      "Ġbureau": 8643,
      "ĠiOS": 8644,
      "ĠControl": 8645,
      "wered": 8646,
      "Ġfoss": 8647,
      "ĠTri": 8648,
      "Ġham": 8649,
      "Ġdisrupt": 8650,
      "ixed": 8651,
      "Ġauthent": 8652,
      "Ġporn": 8653,
      "ĠRoss": 8654,
      "Ġpreced": 8655,
      "Ġconsistently": 8656,
      "Ġtransportation": 8657,
      "Ġshr": 8658,
      "ĠCBS": 8659,
      "unes": 8660,
      "Ġthrowing": 8661,
      "ĠAnderson": 8662,
      "Ġdepends": 8663,
      "rets": 8664,
      "lad": 8665,
      "Ġaddressed": 8666,
      "Ġcoc": 8667,
      "ÂĴ": 8668,
      "Ġpref": 8669,
      "FA": 8670,
      "Ġcolors": 8671,
      "ĠHo": 8672,
      "Ġpersonality": 8673,
      "uction": 8674,
      "Ġmining": 8675,
      "Ð»": 8676,
      "vard": 8677,
      "ĠiP": 8678,
      "Ġattitude": 8679,
      "ho": 8680,
      "Ġhanded": 8681,
      ".'ĊĊ": 8682,
      "Ġmissile": 8683,
      "Ġinflation": 8684,
      "Ġpetition": 8685,
      "Ġreads": 8686,
      "ipal": 8687,
      "ĠTro": 8688,
      "Ġclothes": 8689,
      "Ġnoting": 8690,
      "ĠVancouver": 8691,
      "Ġmountain": 8692,
      "Ġsurf": 8693,
      "Ġvirtually": 8694,
      "Ġje": 8695,
      "Ġfruit": 8696,
      "ĠRa": 8697,
      "Both": 8698,
      "ĠFreedom": 8699,
      "icity": 8700,
      "Ġconversations": 8701,
      "iences": 8702,
      "Ġsteel": 8703,
      "keep": 8704,
      "plete": 8705,
      "ĠMean": 8706,
      "Ġwarrant": 8707,
      "Ġspeaks": 8708,
      "ordon": 8709,
      "Ġprofits": 8710,
      "EST": 8711,
      "Ġconce": 8712,
      "Ġlowest": 8713,
      "-sex": 8714,
      "Ġgains": 8715,
      "ĠHospital": 8716,
      "ĠShare": 8717,
      "Ġshoulder": 8718,
      "iability": 8719,
      "Ġguest": 8720,
      "Ġhorror": 8721,
      "Ġfantastic": 8722,
      "Ġclosing": 8723,
      "Ġtries": 8724,
      "ĠFamily": 8725,
      "Ġastron": 8726,
      "Che": 8727,
      "Ġreader": 8728,
      "ropri": 8729,
      "Ġspiritual": 8730,
      "Ġappreciate": 8731,
      "ivals": 8732,
      "-go": 8733,
      "Ġwrest": 8734,
      "Ġentr": 8735,
      "flix": 8736,
      "-con": 8737,
      "ĠCleveland": 8738,
      "Ġcontributions": 8739,
      "Ġincidents": 8740,
      "Related": 8741,
      "ĠIllinois": 8742,
      "ĠIntelligence": 8743,
      "Ġaccommod": 8744,
      "ĠCre": 8745,
      "Ġhandling": 8746,
      "ĠBroad": 8747,
      "Ġstone": 8748,
      "Ġguarantee": 8749,
      "Ġmarks": 8750,
      "uits": 8751,
      "ppers": 8752,
      "Ġdepression": 8753,
      "PC": 8754,
      "ĠBang": 8755,
      "Ġtea": 8756,
      "\".[": 8757,
      "ĠEnvironment": 8758,
      "Ġprotocol": 8759,
      "amac": 8760,
      "Ġvoter": 8761,
      "ĠHoward": 8762,
      "Ġhint": 8763,
      "Ġdrew": 8764,
      "Ġdance": 8765,
      "ĠLas": 8766,
      "Ġrhet": 8767,
      "Ġsubsequent": 8768,
      "Ġballot": 8769,
      "Ġphotograp": 8770,
      "Ġmaps": 8771,
      "uted": 8772,
      "Ġencouraged": 8773,
      "Ġranks": 8774,
      "Ġlucky": 8775,
      "Ġspoken": 8776,
      "Ġswing": 8777,
      "aval": 8778,
      "senal": 8779,
      "Ġinner": 8780,
      "??": 8781,
      "Ġpromises": 8782,
      "ĠEngine": 8783,
      "ĠLewis": 8784,
      "Ġbacter": 8785,
      "ila": 8786,
      "Ġtrem": 8787,
      "Ġcovering": 8788,
      "Ġconsole": 8789,
      "ĠHarris": 8790,
      "âĢĲ": 8791,
      "ported": 8792,
      "EE": 8793,
      "TT": 8794,
      "-hour": 8795,
      "ĠUnfortunately": 8796,
      "Ġdivided": 8797,
      "ĠExt": 8798,
      "-mail": 8799,
      "ĠCH": 8800,
      "Please": 8801,
      "Ġinnovation": 8802,
      "-mon": 8803,
      "President": 8804,
      "Ġjudges": 8805,
      "unicip": 8806,
      "Ġgrav": 8807,
      "Ġshout": 8808,
      "Ġpremium": 8809,
      "sm": 8810,
      "ĠBa": 8811,
      "Ġbrown": 8812,
      "itage": 8813,
      "zed": 8814,
      "eding": 8815,
      "Ġbuff": 8816,
      "ĠWhich": 8817,
      "Ġchecks": 8818,
      "arre": 8819,
      "Ġmusical": 8820,
      "ĠIraqi": 8821,
      "ĠGetty": 8822,
      "Ġ_": 8823,
      "ĠDet": 8824,
      "Ġportray": 8825,
      "84": 8826,
      "Ġthrew": 8827,
      "abeth": 8828,
      "helsea": 8829,
      "ĠBad": 8830,
      "Ġimproving": 8831,
      "Ġrevel": 8832,
      "####": 8833,
      "Ġefficiency": 8834,
      "bi": 8835,
      "Ġdistributed": 8836,
      "Ġdrama": 8837,
      "Ġsilver": 8838,
      "Ġmistakes": 8839,
      "annels": 8840,
      "ĠIndeed": 8841,
      "Ġreplacement": 8842,
      "Ġlocked": 8843,
      "Ġtemperatures": 8844,
      "Ġspokesperson": 8845,
      "Ġacknowledged": 8846,
      "ĠWithout": 8847,
      "Ġcust": 8848,
      "ĠSony": 8849,
      "/p": 8850,
      "Ġjoke": 8851,
      "ĠPatri": 8852,
      "Ġlying": 8853,
      "Ġresponses": 8854,
      "160": 8855,
      "ĠAC": 8856,
      "Ġcomedy": 8857,
      "pled": 8858,
      "Ġparalle": 8859,
      "yer": 8860,
      "Ġrom": 8861,
      "ĠMexican": 8862,
      "ĠCook": 8863,
      "Ġprol": 8864,
      "argo": 8865,
      "heim": 8866,
      "ira": 8867,
      "Ġdump": 8868,
      "Ġprotecting": 8869,
      "Ġsoil": 8870,
      "ĠHell": 8871,
      "Ġbreaks": 8872,
      "aping": 8873,
      "Ġgal": 8874,
      "Ġbarrel": 8875,
      "xx": 8876,
      "Ġliterature": 8877,
      "81": 8878,
      "Ġhomeless": 8879,
      "Ġpermit": 8880,
      "ĠConnect": 8881,
      "ĠSet": 8882,
      "mo": 8883,
      "Ġinstrument": 8884,
      "ĠStart": 8885,
      "Ġlegacy": 8886,
      "ogs": 8887,
      "Ġyellow": 8888,
      "Ġreferendum": 8889,
      "amacare": 8890,
      "ieties": 8891,
      "Sen": 8892,
      "Ġlets": 8893,
      "ĠNATO": 8894,
      "Part": 8895,
      "ĠCost": 8896,
      "Ġabandoned": 8897,
      "Ġjoy": 8898,
      "Your": 8899,
      "ĠSamsung": 8900,
      "Ġmad": 8901,
      "ijing": 8902,
      "Ġvirus": 8903,
      "ĠNOT": 8904,
      "Ġpassengers": 8905,
      "Note": 8906,
      "ĠPlus": 8907,
      "Ġscan": 8908,
      "Ġordinary": 8909,
      "ĠMoon": 8910,
      "ĠFootball": 8911,
      "inction": 8912,
      "plate": 8913,
      "Ġfestival": 8914,
      "Ġmoon": 8915,
      "ĠUse": 8916,
      "Ġcommonly": 8917,
      "ĠKong": 8918,
      "Ġblast": 8919,
      "hesis": 8920,
      "Ġdemonstrated": 8921,
      "ĠHind": 8922,
      "ĠAst": 8923,
      "erted": 8924,
      "Ġignored": 8925,
      "Ġcopies": 8926,
      "Ġdiverse": 8927,
      "Ġtwenty": 8928,
      "ĠNev": 8929,
      "Ġstolen": 8930,
      "-or": 8931,
      "assador": 8932,
      "Ġnomination": 8933,
      "PP": 8934,
      "oded": 8935,
      "ĠMarvel": 8936,
      "Ġtape": 8937,
      "-te": 8938,
      "Ġfunded": 8939,
      "Ġmidfield": 8940,
      "ĠBuff": 8941,
      "Ġfalls": 8942,
      "ĠLyn": 8943,
      "acket": 8944,
      "VE": 8945,
      "Ġ(âĢľ": 8946,
      "Ġrif": 8947,
      "ocument": 8948,
      "ĠDoes": 8949,
      "Ġexit": 8950,
      "Ġnaturally": 8951,
      "Ġhelpful": 8952,
      "Ġacquired": 8953,
      "Ġgrid": 8954,
      "hot": 8955,
      "Ġcompe": 8956,
      "Ġstudied": 8957,
      "Ġrear": 8958,
      "esty": 8959,
      "ĠLA": 8960,
      "Ġupgrade": 8961,
      "Ġdad": 8962,
      "lahoma": 8963,
      "Ġles": 8964,
      "Ġscope": 8965,
      "Ġsty": 8966,
      "iley": 8967,
      "Ġmeasured": 8968,
      "erg": 8969,
      "alia": 8970,
      "uh": 8971,
      "Ġtransactions": 8972,
      "Ġbub": 8973,
      "aware": 8974,
      "ĠPop": 8975,
      "eters": 8976,
      "Ġcounts": 8977,
      "ĠAI": 8978,
      "Ġarrive": 8979,
      "Ġassert": 8980,
      "ĠEag": 8981,
      "Ġpartnership": 8982,
      "92": 8983,
      "Ġmarch": 8984,
      "comes": 8985,
      "Ġinsisted": 8986,
      "Ġmonitoring": 8987,
      "Ġsymp": 8988,
      "Ġfro": 8989,
      "Ġstages": 8990,
      "Ġheadquarters": 8991,
      "ĠBron": 8992,
      "Ġdeficit": 8993,
      "Ġreplied": 8994,
      "Ġcapabilities": 8995,
      "iate": 8996,
      "ĠCapt": 8997,
      "Ġratio": 8998,
      "Ġskept": 8999,
      "rimin": 9000,
      "ĠDave": 9001,
      "Art": 9002,
      "130": 9003,
      "ĠPrince": 9004,
      "Ġrepresenting": 9005,
      "Ġreceiver": 9006,
      "ĠâĢ¢": 9007,
      "Ġprotein": 9008,
      "ĠAtlantic": 9009,
      "Ġmathem": 9010,
      "ela": 9011,
      "Ġclock": 9012,
      "ĠEmpire": 9013,
      "ĠBon": 9014,
      "ctic": 9015,
      "83": 9016,
      "Ġsupplies": 9017,
      "Ġtracking": 9018,
      "ĠTour": 9019,
      "Ġdistract": 9020,
      "Ġperforming": 9021,
      "Ġusage": 9022,
      "ĠDeath": 9023,
      "ĠProv": 9024,
      "Her": 9025,
      "roduction": 9026,
      "aeda": 9027,
      "\">": 9028,
      "ĠMarsh": 9029,
      "Ġunions": 9030,
      "ĠIndiana": 9031,
      "ĠMaster": 9032,
      "Ġracism": 9033,
      "Source": 9034,
      "Ġax": 9035,
      "Ġguitar": 9036,
      "Ġconservatives": 9037,
      "Ġuniversities": 9038,
      "Ġassessment": 9039,
      "Ġproposals": 9040,
      "ĠScient": 9041,
      "Ġauto": 9042,
      "iece": 9043,
      "ols": 9044,
      "Ġequality": 9045,
      "Ġplain": 9046,
      "Ġaccomplish": 9047,
      "ington": 9048,
      "Ġcriticized": 9049,
      "Ġhoped": 9050,
      "Ġtie": 9051,
      "ji": 9052,
      "dated": 9053,
      "ĠHa": 9054,
      "-right": 9055,
      "Ġwaters": 9056,
      "Facebook": 9057,
      "Ġtrave": 9058,
      "ĠTrib": 9059,
      "iler": 9060,
      "Ġconcrete": 9061,
      "Ġconventional": 9062,
      "ormal": 9063,
      "ĠSometimes": 9064,
      "ĠPass": 9065,
      "Ġrender": 9066,
      "encing": 9067,
      "Ġwarn": 9068,
      "isk": 9069,
      "âĢĶa": 9070,
      "Ġec": 9071,
      "Ġdomain": 9072,
      "Ġbeauty": 9073,
      "186": 9074,
      "ĠRos": 9075,
      "Ġshopping": 9076,
      "akh": 9077,
      "âĢĻ.": 9078,
      "ĠDenver": 9079,
      "ecutive": 9080,
      "BM": 9081,
      "ntil": 9082,
      "Ġappointed": 9083,
      "Ġramp": 9084,
      "Ġprogramme": 9085,
      "Ġletting": 9086,
      "ĠAud": 9087,
      "orge": 9088,
      "ĠBureau": 9089,
      "omes": 9090,
      "Ġexch": 9091,
      "Ġreliable": 9092,
      "ught": 9093,
      "Ġinequ": 9094,
      "AND": 9095,
      "UST": 9096,
      "ĠGalaxy": 9097,
      "Ġintroduction": 9098,
      "usalem": 9099,
      "Ġabsor": 9100,
      "Ġdismissed": 9101,
      "Ġabroad": 9102,
      "ĠMill": 9103,
      "Ġdust": 9104,
      "pton": 9105,
      "OK": 9106,
      "irts": 9107,
      "-end": 9108,
      "Ġcance": 9109,
      "NS": 9110,
      "Ġartific": 9111,
      "ĠAbb": 9112,
      "olph": 9113,
      "Ġappearances": 9114,
      "Ġvisiting": 9115,
      "Ġves": 9116,
      "ĠAssociated": 9117,
      "dney": 9118,
      "archy": 9119,
      "Ġlandscape": 9120,
      "rite": 9121,
      "Ġclassified": 9122,
      "mony": 9123,
      "theless": 9124,
      "Ġdrove": 9125,
      "ĠLim": 9126,
      "ounding": 9127,
      "agic": 9128,
      "ĠUtah": 9129,
      "ĠPo": 9130,
      "Ġtrigger": 9131,
      "Ġrescue": 9132,
      "ĠCorpor": 9133,
      "Ġveterans": 9134,
      "enez": 9135,
      "Ġentitled": 9136,
      "Ġhyper": 9137,
      "bridge": 9138,
      "Ġpresidency": 9139,
      "Ġhung": 9140,
      "Ke": 9141,
      "ĠAge": 9142,
      "cend": 9143,
      "yo": 9144,
      "ĠOrig": 9145,
      "Sm": 9146,
      "/C": 9147,
      "Ġbread": 9148,
      "Ġmuseum": 9149,
      "ĠâĢĿ": 9150,
      "ĠAward": 9151,
      "ĠPortland": 9152,
      "ĠLine": 9153,
      "ĠTechnology": 9154,
      "ĠJam": 9155,
      "ultane": 9156,
      "-point": 9157,
      "!âĢĿĊĊ": 9158,
      "Ġtransit": 9159,
      "Ġpatch": 9160,
      "Ste": 9161,
      "Ġurged": 9162,
      "\"There": 9163,
      "Ġblocked": 9164,
      "ĠOntario": 9165,
      "ĠWH": 9166,
      "Ġhockey": 9167,
      "Ġsenator": 9168,
      "iano": 9169,
      "worth": 9170,
      "Ġcenters": 9171,
      "Ġpopulations": 9172,
      "96": 9173,
      "87": 9174,
      "ĠFront": 9175,
      "Ġcongressional": 9176,
      "ais": 9177,
      "Ġspokeswoman": 9178,
      "Ġ~": 9179,
      ".d": 9180,
      "ĠCode": 9181,
      "ĠSweden": 9182,
      "ĠCA": 9183,
      "rooms": 9184,
      "RL": 9185,
      "Ġpredicted": 9186,
      "aga": 9187,
      "Ġassign": 9188,
      "Ġrocket": 9189,
      "Ġpolitically": 9190,
      "Ġfiring": 9191,
      "Ġwhenever": 9192,
      "Ġclar": 9193,
      "Ġwider": 9194,
      "Ġtargeting": 9195,
      "Ġcig": 9196,
      "ĠCooper": 9197,
      "ĠLow": 9198,
      "Yet": 9199,
      "ĠOlympic": 9200,
      "Ġbreath": 9201,
      "Ġsequence": 9202,
      "Ġrequested": 9203,
      "jud": 9204,
      "Ġsurvival": 9205,
      "low": 9206,
      "ĠNintendo": 9207,
      "Ġdates": 9208,
      "Ġswim": 9209,
      "Ġtestimony": 9210,
      "Cons": 9211,
      "atar": 9212,
      "Ġpursue": 9213,
      "Ġpersons": 9214,
      "Ġdocumentary": 9215,
      "ĠKar": 9216,
      "93": 9217,
      "Ġapproached": 9218,
      "ĠGirl": 9219,
      "aver": 9220,
      "Ġcompare": 9221,
      "Ġmembership": 9222,
      "ordinary": 9223,
      "fol": 9224,
      "acco": 9225,
      "ĠBible": 9226,
      "rogen": 9227,
      "Ġrecall": 9228,
      "afe": 9229,
      "ĠUr": 9230,
      "Ġmole": 9231,
      "Ġsubmit": 9232,
      "-known": 9233,
      "ĠRoberts": 9234,
      "izabeth": 9235,
      "Ġrepresentatives": 9236,
      "Ġtactics": 9237,
      "Ġemployed": 9238,
      "olves": 9239,
      "Ġsoccer": 9240,
      "-round": 9241,
      "Ġquote": 9242,
      "********": 9243,
      "Ġbrilliant": 9244,
      "ĠLiverpool": 9245,
      "orous": 9246,
[...]
